{
    "s,\nNor": 5,
    "Li": 6,
    "Sweet ": 7,
    "ardel": 8,
    "you, sir, ": 9,
    "ex": 10,
    ":\nPray ": 11,
    "liking": 12,
    "?\nAh, ": 13,
    ":\nWhat, ": 14,
    "must I ": 15,
    " woman's ": 16,
    "change of ": 17,
    "pity": 18,
    "CARL": 19,
    " thou w": 20,
    "GREMIO:\n": 21,
    "ec": 22,
    "ught": 23,
    "ind ": 24,
    "e\nA": 25,
    "to the Capitol": 26,
    "end ": 27,
    " of all": 28,
    "ending": 29,
    "are not ": 30,
    "ci": 31,
    "it, and ": 32,
    ":\nTell": 33,
    " now": 34,
    "entran": 35,
    "ready ": 36,
    " have ": 37,
    "ess\n": 38,
    "other ": 39,
    "gether ": 40,
    "EONTES:\n": 41,
    " her, ": 42,
    " he is ": 43,
    "the people ": 44,
    " be ": 45,
    "Must ": 46,
    "WARWICK": 47,
    "ight\n": 48,
    "stor": 49,
    " ma": 50,
    "ARI": 51,
    "twice ": 52,
    "QUEEN ELIZABET": 53,
    "Hav": 54,
    "dies": 55,
    ";\nOr ": 56,
    "I\n": 57,
    ". Please ": 58,
    "S:\n": 59,
    "base ": 60,
    "us, ": 61,
    "Ch": 62,
    "?\n\nDUCHESS OF YORK": 63,
    ";\nH": 64,
    "upon thee": 65,
    " appoint": 66,
    ",\nWh": 67,
    "one": 68,
    "IR STEPHEN SCROOP": 69,
    "people ": 70,
    "should not ": 71,
    "not so ": 72,
    "action": 73,
    "-p": 74,
    ",\nA": 75,
    "dic": 76,
    ".\nBut ": 77,
    "dull": 78,
    "; and so ": 79,
    "ca": 80,
    "upon thy ": 81,
    " re": 82,
    "dieu": 83,
    "?\n\nGLOUCESTER": 84,
    "LAU": 85,
    "?\n\nQUEEN MARGARET:\n": 86,
    "IR STE": 87,
    "div": 88,
    ",--\n\n": 89,
    "e, sir": 90,
    "England's ": 91,
    "Le": 92,
    " with this ": 93,
    "rebell": 94,
    "slander": 95,
    "lex": 96,
    ": when ": 97,
    ",\nYet ": 98,
    "mine arm": 99,
    "If": 100,
    "after ": 101,
    "LAUDIO:\n": 102,
    "ency ": 103,
    "will s": 104,
    "he\n": 105,
    "hearted ": 106,
    "Lew": 107,
    "revel": 108,
    "royal ": 109,
    "\nR": 110,
    "ge": 111,
    ":\n'T": 112,
    "ide the ": 113,
    "rim": 114,
    "s, the ": 115,
    "BRAKENBURY": 116,
    " th": 117,
    "ere ": 118,
    "DOR": 119,
    ", go ": 120,
    "awak": 121,
    "ius ": 122,
    "it not ": 123,
    "are they ": 124,
    " not, ": 125,
    ";\nMy ": 126,
    "HEN": 127,
    "!'\n\n": 128,
    "upon your": 129,
    "sorrow": 130,
    "you are": 131,
    "What is ": 132,
    "Polixen": 133,
    "of the ": 134,
    "s he ": 135,
    "Were ": 136,
    "ustom": 137,
    " in a": 138,
    "rite ": 139,
    "ely": 140,
    "I do ": 141,
    "bast": 142,
    "sal": 143,
    "ur": 144,
    "sir;": 145,
    "o' the ": 146,
    " dea": 147,
    "t and ": 148,
    "pothecary": 149,
    "there,\n": 150,
    ":\nIf ": 151,
    "Roman": 152,
    "sake, ": 153,
    "dies ": 154,
    " to do ": 155,
    "here ": 156,
    "Clifford ": 157,
    "e;\n": 158,
    "ys": 159,
    "prison": 160,
    ". Take ": 161,
    "ISTRESS ": 162,
    "This is ": 163,
    "your d": 164,
    "Gentle ": 165,
    "that\nWhich": 166,
    " sur": 167,
    "GLOUCESTER:\n\n": 168,
    "if thou": 169,
    "Keep": 170,
    "lot": 171,
    "UCIO:\n": 172,
    "lord of ": 173,
    ".\n\nHASTINGS:\n": 174,
    "bab": 175,
    "of it": 176,
    "ame ": 177,
    "st, ": 178,
    "come to ": 179,
    "prom": 180,
    "tran": 181,
    "s him": 182,
    " you to ": 183,
    "past": 184,
    ".\n\nPRINCE EDWARD": 185,
    "\nthe ": 186,
    "lace": 187,
    "I would have ": 188,
    "soldier": 189,
    " scarce ": 190,
    "old,\n": 191,
    "indeed ": 192,
    "eel": 193,
    "deb": 194,
    "meet ": 195,
    "left ": 196,
    "in": 197,
    ",'": 198,
    "RINCE ": 199,
    "large ": 200,
    "Bet": 201,
    "?\n\nSICINIUS:\n": 202,
    "inher": 203,
    ":\nEven": 204,
    "int": 205,
    "ere\n": 206,
    "imagin": 207,
    "rab": 208,
    "gone": 209,
    ".\n\nBoy": 210,
    " foul": 211,
    "esp": 212,
    "if it ": 213,
    "\nDid ": 214,
    "er of the ": 215,
    "I say ": 216,
    "Alb": 217,
    "save ": 218,
    "CAPULET:\n": 219,
    "Aufidius": 220,
    "repent ": 221,
    "vis": 222,
    ".\nF": 223,
    "ina": 224,
    "\nWe ": 225,
    "already ": 226,
    "I thank": 227,
    " prom": 228,
    "ength": 229,
    "did not ": 230,
    "shalt ": 231,
    "cousin, ": 232,
    "of me": 233,
    "joy ": 234,
    "From ": 235,
    "NT": 236,
    "leave you": 237,
    "y\nAnd ": 238,
    " shad": 239,
    "? wh": 240,
    "course of ": 241,
    "children ": 242,
    "er in": 243,
    "intend to ": 244,
    "andal": 245,
    "reputation": 246,
    " thin": 247,
    " pity ": 248,
    " pass": 249,
    ", what ": 250,
    "othing but ": 251,
    "ament": 252,
    "QUEEN ": 253,
    "ate,\n": 254,
    " beast": 255,
    "t the ": 256,
    "y ": 257,
    ".\nGo, ": 258,
    "! O, ": 259,
    "ed,\n": 260,
    ":\nThen ": 261,
    " tell": 262,
    "e. ": 263,
    "discover": 264,
    ";\nNot ": 265,
    "senator": 266,
    "Hereford, ": 267,
    "lik": 268,
    "PETER": 269,
    "to her": 270,
    "condu": 271,
    "me to ": 272,
    "been": 273,
    "hot": 274,
    "by and ": 275,
    ".\nC": 276,
    "lim": 277,
    "spirit": 278,
    "men's ": 279,
    ".\n\nANTIGONUS:\n": 280,
    "forsworn": 281,
    "bir": 282,
    "e; and ": 283,
    "vein": 284,
    "egi": 285,
    "They say ": 286,
    "fam": 287,
    "ear ": 288,
    "foll": 289,
    "warrior": 290,
    "plo": 291,
    " mark": 292,
    "OMERSET": 293,
    ". Thou": 294,
    " bet": 295,
    "business, ": 296,
    "heart": 297,
    "all ": 298,
    "I thought ": 299,
    "Raven": 300,
    "HORTENSIO:\n": 301,
    "wind": 302,
    "vul": 303,
    " a m": 304,
    "wail": 305,
    "itted ": 306,
    "-": 307,
    "bosom": 308,
    "send the ": 309,
    "Salisbur": 310,
    "King Henry ": 311,
    "u": 312,
    "IR S": 313,
    "in\n": 314,
    "t\nTo ": 315,
    "place ": 316,
    "ing to the ": 317,
    "hope to ": 318,
    "; for the ": 319,
    "eness ": 320,
    "'d": 321,
    "il": 322,
    "toad": 323,
    "lion": 324,
    "of the king": 325,
    "Em": 326,
    "that, ": 327,
    "fre": 328,
    "RIVERS:\n": 329,
    "ring ": 330,
    "ERCU": 331,
    "kind of": 332,
    "had ": 333,
    "NORTHUMBER": 334,
    "acqu": 335,
    " mali": 336,
    "etimes ": 337,
    "night\n": 338,
    " there ": 339,
    ",\nAs ": 340,
    " a thousand ": 341,
    "yal": 342,
    "be ": 343,
    "confess ": 344,
    "mak": 345,
    "I make ": 346,
    "ORI": 347,
    "Upon his ": 348,
    "a gentleman": 349,
    "you:": 350,
    "doub": 351,
    "ONT": 352,
    "no other": 353,
    "we will ": 354,
    "ew": 355,
    "a wor": 356,
    "shall we ": 357,
    "catch": 358,
    "OL": 359,
    "e;": 360,
    " ap": 361,
    "gone, ": 362,
    "in war": 363,
    "rt thou": 364,
    "MERCUTIO:\n": 365,
    "your husb": 366,
    "fashion": 367,
    "GREY": 368,
    "impor": 369,
    "feed ": 370,
    "?\nThat ": 371,
    "t ": 372,
    "IR STEP": 373,
    "zen": 374,
    "er's ": 375,
    "cell": 376,
    "step": 377,
    ",'tis ": 378,
    "abro": 379,
    "temper": 380,
    " said ": 381,
    "King Richard ": 382,
    "shall be so": 383,
    "hood ": 384,
    "ud": 385,
    " this": 386,
    "you speak": 387,
    "awn": 388,
    " you know": 389,
    "val": 390,
    "ower": 391,
    "ladies, ": 392,
    "presence": 393,
    "oy": 394,
    "every ": 395,
    "ent": 396,
    "am": 397,
    ".\n\nPAULIN": 398,
    "le\n": 399,
    " I am": 400,
    "reland": 401,
    "His ": 402,
    "e, as ": 403,
    "; a": 404,
    "repair": 405,
    "wretch": 406,
    "oldi": 407,
    "Give me ": 408,
    "in his ": 409,
    " on my ": 410,
    "obe": 411,
    "EG": 412,
    " prince ": 413,
    "I mean to ": 414,
    "esol": 415,
    " deb": 416,
    "much": 417,
    "; no ": 418,
    ", and go ": 419,
    "doth not ": 420,
    " consci": 421,
    "?'": 422,
    "beg": 423,
    "visit": 424,
    "wh": 425,
    "comfort": 426,
    " young": 427,
    "thief": 428,
    "ated ": 429,
    "all my ": 430,
    "to me": 431,
    "is but ": 432,
    ",\nF": 433,
    "petual": 434,
    "fell ": 435,
    "acc": 436,
    "advi": 437,
    " shouldst ": 438,
    "know ": 439,
    "one would ": 440,
    " sil": 441,
    "ning": 442,
    ".\n\nJULIET": 443,
    "examp": 444,
    "RICHM": 445,
    "pract": 446,
    " to the ": 447,
    ":\nGod ": 448,
    "lown": 449,
    "ignor": 450,
    " husband": 451,
    "granted ": 452,
    "thou shalt ": 453,
    ".\n\nFirst Senator": 454,
    "which ": 455,
    "grant": 456,
    "behalf": 457,
    "ull ": 458,
    "\nTo the ": 459,
    "it.\n\nMENENIUS:\n": 460,
    "Verona": 461,
    "rown": 462,
    "on thee": 463,
    "contrar": 464,
    " of York": 465,
    "s\nAnd ": 466,
    " alone": 467,
    " no more ": 468,
    "dri": 469,
    "ual": 470,
    "rear": 471,
    "wall": 472,
    ":\nYou ": 473,
    " of it": 474,
    "no further": 475,
    "subdu": 476,
    "ook": 477,
    "of our": 478,
    "sour": 479,
    "for it": 480,
    "'rt ": 481,
    "to death": 482,
    "Tranio": 483,
    "the ": 484,
    " to-": 485,
    " tun": 486,
    "seem to ": 487,
    "continue ": 488,
    "hours ": 489,
    "with w": 490,
    ":\nNo": 491,
    "desperate ": 492,
    "a, ": 493,
    ".\n\nMAR": 494,
    "'d their": 495,
    " me?\n": 496,
    ".\nThou": 497,
    "LE:\n": 498,
    "themselves ": 499,
    "ERMI": 500,
    "my lord.\n\nDUKE VINCENTIO:\n": 501,
    "ies, ": 502,
    ".\n\nFLORIZEL": 503,
    "your th": 504,
    ":\nNor": 505,
    "none but ": 506,
    "sci": 507,
    "brea": 508,
    "perhap": 509,
    "choo": 510,
    ":\nL": 511,
    " himself": 512,
    "rejo": 513,
    "former ": 514,
    "hath ": 515,
    "Farewell": 516,
    "a word": 517,
    "elm": 518,
    ". Yet ": 519,
    "ORT": 520,
    "minister": 521,
    "words ": 522,
    "langu": 523,
    "at the ": 524,
    "Aufidius ": 525,
    "mine ": 526,
    "frank": 527,
    "betwixt ": 528,
    "Ere ": 529,
    "God": 530,
    "love,\n": 531,
    "Let him": 532,
    "Norfolk": 533,
    "etition": 534,
    "Plantagenet": 535,
    "possess ": 536,
    "though it ": 537,
    "i": 538,
    "s, that ": 539,
    "vent ": 540,
    "eeth": 541,
    "certain": 542,
    "welcome, ": 543,
    "!\n\nDUKE VINCENTIO:\n": 544,
    ",\nDo ": 545,
    "; here's ": 546,
    "THOMA": 547,
    "est": 548,
    "ound\n": 549,
    "e, the ": 550,
    "good morrow": 551,
    "half": 552,
    "hould ": 553,
    " womb": 554,
    ".\nThat ": 555,
    "lantag": 556,
    "brief": 557,
    "sound ": 558,
    "oak": 559,
    "Petruchio, ": 560,
    "speed": 561,
    " held ": 562,
    "As ": 563,
    "; he ": 564,
    "disinher": 565,
    "your tongu": 566,
    "fond ": 567,
    "advise ": 568,
    ",\nOr ": 569,
    "re you": 570,
    "innoc": 571,
    "lan": 572,
    "calam": 573,
    "word, ": 574,
    "ali": 575,
    "z": 576,
    "A ": 577,
    "or d": 578,
    "susp": 579,
    "; but, ": 580,
    "ner": 581,
    "cry '": 582,
    "leave,\n": 583,
    "oth": 584,
    "wo ": 585,
    "in Rome": 586,
    "ird ": 587,
    "of their": 588,
    "DUCHESS OF YORK": 589,
    "whip": 590,
    "degre": 591,
    "aid ": 592,
    "col": 593,
    ":\nO ": 594,
    "hither, ": 595,
    "has the ": 596,
    "jud": 597,
    "uspicion": 598,
    "; as ": 599,
    "!\n\nNurse": 600,
    "he has ": 601,
    "thou art": 602,
    "decre": 603,
    "MER": 604,
    "prov": 605,
    "ee ": 606,
    "onounce ": 607,
    "inter": 608,
    "lem": 609,
    "Away ": 610,
    "ra": 611,
    "QUEEN MARG": 612,
    ". What ": 613,
    ";\nWhere ": 614,
    "ceiv": 615,
    "ne'er ": 616,
    "ladies ": 617,
    "; who, ": 618,
    "dres": 619,
    "army ": 620,
    "ICINIUS:\n": 621,
    "how the ": 622,
    "pl": 623,
    "-d": 624,
    "man's ": 625,
    "craf": 626,
    " grace ": 627,
    " weak": 628,
    "capt": 629,
    "I hope, ": 630,
    "smile ": 631,
    "absolute ": 632,
    " compan": 633,
    "ly,\n": 634,
    "las": 635,
    "rm": 636,
    "word ": 637,
    "Titus ": 638,
    "ings ": 639,
    "!\n\nKING EDWARD IV": 640,
    "eb": 641,
    "ection": 642,
    "ould, ": 643,
    "'s head": 644,
    "in our ": 645,
    "reak": 646,
    "ty, ": 647,
    "I was ": 648,
    ".\n\nSecond Servingman": 649,
    "NORFOLK": 650,
    "enjoy": 651,
    "alone.\n\n": 652,
    "enator": 653,
    "str": 654,
    "selves,\n": 655,
    "ard": 656,
    "blem": 657,
    "; 'tis ": 658,
    "y of ": 659,
    "behind ": 660,
    "dition": 661,
    "a w": 662,
    "creep": 663,
    "what we ": 664,
    " day ": 665,
    "Sur": 666,
    "heir": 667,
    "ue ": 668,
    "I can tell ": 669,
    "!\nO": 670,
    "you t": 671,
    "a s": 672,
    "upon the ": 673,
    "ine\n": 674,
    ",\nAnd make ": 675,
    "eye, ": 676,
    " one ": 677,
    "kiss ": 678,
    "ground": 679,
    "forfeit ": 680,
    " you can": 681,
    "ee": 682,
    "priz": 683,
    " saf": 684,
    "appar": 685,
    "go along": 686,
    "er'd ": 687,
    "Tybalt, ": 688,
    "t\nAs ": 689,
    " flower": 690,
    "\nHe ": 691,
    "call them": 692,
    "'st me ": 693,
    "Aumer": 694,
    "betra": 695,
    "lament": 696,
    "brother's ": 697,
    ": in": 698,
    "buy ": 699,
    ",' ": 700,
    "faul": 701,
    "dishonour": 702,
    "cess": 703,
    ":\nMy ": 704,
    "French": 705,
    "your f": 706,
    "Tybalt": 707,
    "I sp": 708,
    "lasting ": 709,
    "patrician": 710,
    "wilt ": 711,
    "OMER": 712,
    " are ": 713,
    "duke ": 714,
    "du": 715,
    "Richard, ": 716,
    "Fran": 717,
    "cherish": 718,
    "tort": 719,
    "anks, ": 720,
    "brother": 721,
    "TYRR": 722,
    ". W": 723,
    "said ": 724,
    "Lord ": 725,
    "atch": 726,
    "fe": 727,
    "father, ": 728,
    "\nFor": 729,
    " wilt ": 730,
    "aim": 731,
    "ing": 732,
    "es of": 733,
    "devi": 734,
    ".\n\nPETRUCHIO:\n": 735,
    ":\nIndeed, ": 736,
    "dear": 737,
    "woman": 738,
    "yet": 739,
    ".\n\nKING RICHARD III:\n": 740,
    " blood, ": 741,
    "ident ": 742,
    "our noble ": 743,
    "a gra": 744,
    "guil": 745,
    ":\nAnd yet ": 746,
    "Third ": 747,
    " a ": 748,
    ".\n\nCA": 749,
    " count": 750,
    "push": 751,
    "gor": 752,
    " I would ": 753,
    "absol": 754,
    "ARD": 755,
    "stand": 756,
    "ultit": 757,
    "bour": 758,
    "gainst the ": 759,
    "\nWas ": 760,
    "DUCH": 761,
    "having ": 762,
    " pe": 763,
    "hath s": 764,
    ".\n\nLARTIUS:\n": 765,
    "peak": 766,
    "atri": 767,
    " over": 768,
    "accused ": 769,
    ":\nH": 770,
    "I pray ": 771,
    "foot": 772,
    "engthen": 773,
    " things ": 774,
    "Did ": 775,
    "ER": 776,
    "Wel": 777,
    "answer": 778,
    "stol": 779,
    "dar": 780,
    " adv": 781,
    "ring": 782,
    "ISABELLA": 783,
    " been": 784,
    "it": 785,
    "spit": 786,
    "even": 787,
    " air": 788,
    "ED": 789,
    ".\n\nH": 790,
    "accuse": 791,
    "ven ": 792,
    " me, ": 793,
    "s the ": 794,
    "country's ": 795,
    "pay": 796,
    "name": 797,
    "ear me ": 798,
    " was ": 799,
    "ost": 800,
    "opin": 801,
    "have been ": 802,
    "ut\n": 803,
    ".\n\nKING EDWARD IV": 804,
    "Con": 805,
    "given": 806,
    "ruin": 807,
    "a sh": 808,
    " to him": 809,
    "cri": 810,
    "roll": 811,
    "hardly ": 812,
    "?\nWhat ": 813,
    "Be not ": 814,
    "fit": 815,
    "man": 816,
    "loves ": 817,
    "match": 818,
    "looking": 819,
    "Your": 820,
    "Mowbra": 821,
    "ice, ": 822,
    "you f": 823,
    ", be ": 824,
    ".\nI ": 825,
    "thou canst ": 826,
    "What's ": 827,
    "ceive ": 828,
    "commission": 829,
    ", they ": 830,
    "?\n\nJULIET:\n": 831,
    ":\nI will ": 832,
    "strength": 833,
    "Tro": 834,
    ".\n\nMARIAN": 835,
    "news?\n\n": 836,
    "worth": 837,
    "BURY": 838,
    "want": 839,
    "wear": 840,
    "cam": 841,
    ". This ": 842,
    "loving": 843,
    "ANTIG": 844,
    "Marci": 845,
    "ous\n": 846,
    "avoid": 847,
    "meet": 848,
    "cons": 849,
    "?\n\nBENVOLIO:\n": 850,
    "he should ": 851,
    "ma": 852,
    "dost ": 853,
    "; the ": 854,
    "had no ": 855,
    " mind": 856,
    " miser": 857,
    "as much": 858,
    " thou": 859,
    " best ": 860,
    ":\nHer": 861,
    "buried ": 862,
    "wat": 863,
    "the man": 864,
    " a p": 865,
    "\nThou": 866,
    "erk": 867,
    "occupation": 868,
    "sain": 869,
    "King ": 870,
    " and thy ": 871,
    " gu": 872,
    " cur": 873,
    "mer": 874,
    "he will ": 875,
    "ing h": 876,
    "for a ": 877,
    "Edward": 878,
    " no less ": 879,
    "despair": 880,
    "hy": 881,
    "last ": 882,
    "attend": 883,
    " him to ": 884,
    "\nYour ": 885,
    "news is ": 886,
    "made the ": 887,
    " heaven ": 888,
    "ow ": 889,
    " two ": 890,
    "you might ": 891,
    "ert": 892,
    "your majest": 893,
    "troop": 894,
    ":\nWho ": 895,
    "upon my ": 896,
    "; it is ": 897,
    "thrown": 898,
    "!\n\nAUFIDIUS:\n": 899,
    "ds ": 900,
    "encounter ": 901,
    "be\n": 902,
    "thou w": 903,
    "?\n\nDUKE VINCENTIO:\n": 904,
    " will not ": 905,
    "appetit": 906,
    ". Go ": 907,
    "victor": 908,
    " shall not ": 909,
    "stone ": 910,
    "fash": 911,
    "Benvoli": 912,
    "utin": 913,
    ",\nT": 914,
    "spire ": 915,
    "patient ": 916,
    "king, and ": 917,
    ":\nTherefore, ": 918,
    " comes ": 919,
    "ets ": 920,
    "more ": 921,
    " bitter": 922,
    "shri": 923,
    "Lad": 924,
    "in mine ": 925,
    "duke is ": 926,
    "iz": 927,
    "stand up": 928,
    ".\n\nHENRY BOLINGBROKE:\n": 929,
    "prat": 930,
    "or two": 931,
    "their b": 932,
    "pub": 933,
    " tw": 934,
    "boar": 935,
    "Grem": 936,
    "da": 937,
    "e\nTo ": 938,
    " busin": 939,
    " blush": 940,
    "ously ": 941,
    " straight ": 942,
    " into ": 943,
    "I give ": 944,
    "Vien": 945,
    "e-p": 946,
    "punish": 947,
    "sit": 948,
    "stin": 949,
    "strange ": 950,
    "Vir": 951,
    "FITZW": 952,
    "ysic": 953,
    "s in the ": 954,
    "ts are ": 955,
    "twent": 956,
    " band": 957,
    "Coriolan": 958,
    "vengeance ": 959,
    "emplo": 960,
    "Lord of ": 961,
    "istake ": 962,
    "Thou art not ": 963,
    "heard": 964,
    "Oxford, ": 965,
    "enmity": 966,
    "eath": 967,
    "terror": 968,
    "if the ": 969,
    "If not, ": 970,
    "Coriolanus": 971,
    "mighty ": 972,
    "WESTMORE": 973,
    "ilst ": 974,
    "s\nAs ": 975,
    "ing d": 976,
    " boy, ": 977,
    "?\n\nKING RICHARD II": 978,
    "dead": 979,
    "eve ": 980,
    "your honour": 981,
    " hot ": 982,
    "Marry, ": 983,
    "live to ": 984,
    "co": 985,
    "op": 986,
    ".\n\nDERBY": 987,
    "other": 988,
    "rant": 989,
    "Come hither, ": 990,
    "oph": 991,
    "esu": 992,
    " deadly ": 993,
    "Paul": 994,
    "fee": 995,
    "la": 996,
    ",\nEre ": 997,
    " much": 998,
    ".\n\nSecond Murderer": 999,
    "nay, ": 1000,
    "resist": 1001,
    "FLORI": 1002,
    "dear ": 1003,
    "loved ": 1004,
    ". The ": 1005,
    "very\n": 1006,
    "who": 1007,
    "that makes ": 1008,
    "nobly ": 1009,
    "y.\n": 1010,
    "ears ": 1011,
    "cry you m": 1012,
    "me.\n\n": 1013,
    "Capit": 1014,
    " then": 1015,
    "\nThan": 1016,
    "ten times ": 1017,
    "comes here?\n\n": 1018,
    ":\nWhy, ": 1019,
    "man that ": 1020,
    "eigh": 1021,
    "I am ": 1022,
    "proved ": 1023,
    "manner ": 1024,
    "ET": 1025,
    " slain": 1026,
    "sister ": 1027,
    "put ": 1028,
    "Make ": 1029,
    "practise ": 1030,
    "you the ": 1031,
    "child ": 1032,
    "you w": 1033,
    "prince, ": 1034,
    "befor": 1035,
    " mercy ": 1036,
    ":\nUn": 1037,
    "use ": 1038,
    "mee": 1039,
    "ter ": 1040,
    "slily ": 1041,
    "drunk": 1042,
    ":\nIs ": 1043,
    " a g": 1044,
    "depart": 1045,
    "s his ": 1046,
    "thri": 1047,
    "\nThis ": 1048,
    "Romeo, ": 1049,
    "Com": 1050,
    "eet ": 1051,
    "som": 1052,
    "he, ": 1053,
    "FRIAR LAU": 1054,
    "mutinous ": 1055,
    "Juliet": 1056,
    "died ": 1057,
    "Val": 1058,
    "let us go": 1059,
    " certain": 1060,
    "with us": 1061,
    "joy\n": 1062,
    " base ": 1063,
    "id, ": 1064,
    "s,\nSo ": 1065,
    "beseech you": 1066,
    "ster": 1067,
    "'twixt ": 1068,
    "yourselves": 1069,
    " sorrow": 1070,
    "IA:\n": 1071,
    "ruel": 1072,
    "gu": 1073,
    "husb": 1074,
    "WEST": 1075,
    " ass": 1076,
    "cruel": 1077,
    "Herefor": 1078,
    "our fo": 1079,
    ".\n\nClown": 1080,
    "all-": 1081,
    " pain": 1082,
    "title ": 1083,
    "mission": 1084,
    "\nI ": 1085,
    " hence to ": 1086,
    "cred": 1087,
    "! how ": 1088,
    "ever ": 1089,
    "stood ": 1090,
    " hath ": 1091,
    "Rutland": 1092,
    "sets ": 1093,
    " your honour": 1094,
    " to\n": 1095,
    "fault": 1096,
    ":\nBy ": 1097,
    "horse": 1098,
    "edlar": 1099,
    ", look": 1100,
    " full ": 1101,
    "s--": 1102,
    "hereafter": 1103,
    "familiar": 1104,
    "s!\n": 1105,
    "I am the ": 1106,
    " dog": 1107,
    "tion": 1108,
    "ught ": 1109,
    "die": 1110,
    "come; ": 1111,
    "pp": 1112,
    "lar": 1113,
    "when they ": 1114,
    "rather ": 1115,
    "by\n": 1116,
    "straight\n": 1117,
    "usurp": 1118,
    "Rome, ": 1119,
    "cloud": 1120,
    " co": 1121,
    " since ": 1122,
    "Eng": 1123,
    ".\n\nKING RICHARD III": 1124,
    "itation": 1125,
    "Hastings ": 1126,
    "I d": 1127,
    " wh": 1128,
    "gether": 1129,
    "Baptist": 1130,
    "I know": 1131,
    " shall": 1132,
    " throw": 1133,
    "cel": 1134,
    "voli": 1135,
    "wondrous ": 1136,
    "\n": 1137,
    "follow you": 1138,
    "erce ": 1139,
    "s, my ": 1140,
    "reward": 1141,
    "si": 1142,
    " is the ": 1143,
    "ould ": 1144,
    "y!\n": 1145,
    "reh": 1146,
    "sister": 1147,
    " will I ": 1148,
    "not, ": 1149,
    "it with ": 1150,
    "ANG": 1151,
    " mother": 1152,
    "rest, ": 1153,
    "roph": 1154,
    "een": 1155,
    "known": 1156,
    "worst": 1157,
    " action": 1158,
    "est with": 1159,
    "ell'd ": 1160,
    "tit": 1161,
    " glor": 1162,
    "desir": 1163,
    "his ": 1164,
    "age,\n": 1165,
    "Northumberland": 1166,
    "'t please ": 1167,
    "?\nO, ": 1168,
    "ONTAGUE:\n": 1169,
    "wretched ": 1170,
    "ret": 1171,
    "ppy ": 1172,
    "need ": 1173,
    "sentence": 1174,
    ".\n\nPOLIXENES:\n": 1175,
    "thing": 1176,
    "ign": 1177,
    "repent": 1178,
    "you'll": 1179,
    "anch": 1180,
    " first ": 1181,
    "?\n\nMERCUTIO:\n": 1182,
    "ath": 1183,
    "shall s": 1184,
    "ge ": 1185,
    "sm": 1186,
    "quar": 1187,
    "deal": 1188,
    ".\n\nRoman": 1189,
    "quarrel": 1190,
    "bid": 1191,
    "think you": 1192,
    "UC": 1193,
    " wiv": 1194,
    "France ": 1195,
    " of\n": 1196,
    ",\nWe ": 1197,
    "ake ": 1198,
    "unto ": 1199,
    "stri": 1200,
    "e.\n\nC": 1201,
    "swell": 1202,
    "do I": 1203,
    "gif": 1204,
    "on't": 1205,
    "poor": 1206,
    "x": 1207,
    "EN": 1208,
    " weed": 1209,
    "the sen": 1210,
    "der": 1211,
    "onation": 1212,
    "s.\n\nBRUTUS:\n": 1213,
    "ti": 1214,
    "liege": 1215,
    " thes": 1216,
    "wel": 1217,
    ",\nAnd yet ": 1218,
    "grown": 1219,
    "ound, ": 1220,
    "mother's ": 1221,
    "use my ": 1222,
    " from the ": 1223,
    " worth": 1224,
    "pilgr": 1225,
    "?\n\nS": 1226,
    "s that ": 1227,
    " dismis": 1228,
    "YORK": 1229,
    " that I ": 1230,
    ".\n\nWARWICK": 1231,
    "colour": 1232,
    "ear": 1233,
    "of her": 1234,
    " mock": 1235,
    ".\n\nFirst Servant": 1236,
    "!\nCome, ": 1237,
    "bro": 1238,
    ".\n\nPERDITA:\n": 1239,
    "pierce ": 1240,
    "ding": 1241,
    "I might ": 1242,
    "s himself": 1243,
    "V": 1244,
    "mother": 1245,
    ",\nThat ": 1246,
    "ief": 1247,
    ",\nThough": 1248,
    "Thou ": 1249,
    "! wh": 1250,
    "rain": 1251,
    "on ": 1252,
    ", and, ": 1253,
    "ments,\n": 1254,
    ",\nWho ": 1255,
    "tender ": 1256,
    "seiz": 1257,
    "were\n": 1258,
    "fast ": 1259,
    "odds ": 1260,
    "once ": 1261,
    " dear": 1262,
    "a's ": 1263,
    "Ben": 1264,
    ".\n\nSOMERSET": 1265,
    "ligh": 1266,
    "rea": 1267,
    "ility": 1268,
    "me with": 1269,
    "BRA": 1270,
    "her": 1271,
    "nigh": 1272,
    "of what ": 1273,
    "bound ": 1274,
    "my b": 1275,
    "ARC": 1276,
    ":\nWhy ": 1277,
    "ke of ": 1278,
    "have at ": 1279,
    " and ": 1280,
    "an end": 1281,
    " shall ": 1282,
    "loo": 1283,
    "ce ": 1284,
    "W": 1285,
    "cep": 1286,
    "lander": 1287,
    ":\nF": 1288,
    "heavens ": 1289,
    "Even": 1290,
    "hell": 1291,
    "burn": 1292,
    "deed ": 1293,
    ":\nAy, and ": 1294,
    ",\nHe ": 1295,
    "ay, ": 1296,
    "and that ": 1297,
    "trim": 1298,
    "ce": 1299,
    "not to ": 1300,
    "eech": 1301,
    "s my ": 1302,
    "itch": 1303,
    "CAS:\n": 1304,
    ". You": 1305,
    "he was ": 1306,
    "malice ": 1307,
    "de ": 1308,
    "AMIL": 1309,
    "defend ": 1310,
    "ARDIN": 1311,
    "palace ": 1312,
    " men ": 1313,
    "cast": 1314,
    " thought ": 1315,
    "fac": 1316,
    "s thy ": 1317,
    " pre": 1318,
    "in this hour": 1319,
    " daughter": 1320,
    "Go, ": 1321,
    "figure ": 1322,
    "ided ": 1323,
    "forward": 1324,
    "chang": 1325,
    " them to ": 1326,
    "just": 1327,
    "Th": 1328,
    "?\nA": 1329,
    "firm": 1330,
    " gentle ": 1331,
    "rate": 1332,
    "ether ": 1333,
    ",\nNo ": 1334,
    ":\nHow": 1335,
    "ni": 1336,
    "Gaoler": 1337,
    "fight": 1338,
    "madam, ": 1339,
    "g": 1340,
    "ble ": 1341,
    "en ": 1342,
    "drum": 1343,
    "es; ": 1344,
    "ona": 1345,
    "ever\n": 1346,
    "The ": 1347,
    ",\nOne ": 1348,
    "ing him": 1349,
    "Im": 1350,
    "ember": 1351,
    "affection": 1352,
    "lou": 1353,
    "ant": 1354,
    " saw": 1355,
    " canst ": 1356,
    "Leont": 1357,
    " dead": 1358,
    "evil": 1359,
    "own ": 1360,
    "a g": 1361,
    "Paris": 1362,
    "ayor": 1363,
    "best ": 1364,
    ".\n\nMISTRESS OVERDONE:\n": 1365,
    "AM": 1366,
    "Four": 1367,
    "haz": 1368,
    " y": 1369,
    ",--\n": 1370,
    "see the ": 1371,
    ",\nMore ": 1372,
    "any thing": 1373,
    "'ld ": 1374,
    "Wal": 1375,
    "ify ": 1376,
    "!\n\nBENVOLIO:\n": 1377,
    "ball": 1378,
    "ior ": 1379,
    "beh": 1380,
    "affair": 1381,
    "bout ": 1382,
    "anctu": 1383,
    "me not, ": 1384,
    " cha": 1385,
    "Paulina": 1386,
    "e.\n\nThird ": 1387,
    "VALERIA": 1388,
    "Volsces ": 1389,
    "Ratcliff": 1390,
    "quiet": 1391,
    "ate. ": 1392,
    "cold ": 1393,
    "ll ": 1394,
    "Come, sir, ": 1395,
    "Y ": 1396,
    "kind of ": 1397,
    "medd": 1398,
    "effect": 1399,
    "?\n\nYORK": 1400,
    ",\nC": 1401,
    "ceremon": 1402,
    "let him be ": 1403,
    " breast": 1404,
    "a f": 1405,
    "O my ": 1406,
    ";\nWhich, ": 1407,
    "too rough": 1408,
    "liff": 1409,
    "in Padua": 1410,
    ":\nMore ": 1411,
    "an\n": 1412,
    "slaughter": 1413,
    "of thee": 1414,
    "country ": 1415,
    ".\n\nG": 1416,
    ";\nR": 1417,
    "men": 1418,
    "your grace ": 1419,
    "y: ": 1420,
    "lord": 1421,
    "ignior ": 1422,
    "RINC": 1423,
    "treason": 1424,
    "all\n": 1425,
    "return": 1426,
    " against ": 1427,
    "may be ": 1428,
    ". What's ": 1429,
    "ewel": 1430,
    "villain": 1431,
    " strength": 1432,
    "heard the ": 1433,
    "I have ": 1434,
    "as this ": 1435,
    "cape": 1436,
    " thence": 1437,
    "whether": 1438,
    "lean ": 1439,
    " all his ": 1440,
    "THOMAS ": 1441,
    "en and ": 1442,
    "inking": 1443,
    "ithee, ": 1444,
    "subject ": 1445,
    "!\n\nDUCHESS OF YORK": 1446,
    "GLOUC": 1447,
    "lust": 1448,
    "pro": 1449,
    ":\nMost ": 1450,
    "ere is ": 1451,
    "rank": 1452,
    "I'll make ": 1453,
    "ire ": 1454,
    " all": 1455,
    ".\nTo ": 1456,
    "lawful king": 1457,
    "b'd ": 1458,
    " people": 1459,
    "ced ": 1460,
    "ed to ": 1461,
    " al": 1462,
    " hither": 1463,
    "Richard ": 1464,
    "make the ": 1465,
    "ago": 1466,
    "hoo": 1467,
    "aking": 1468,
    "oot ": 1469,
    "sple": 1470,
    "eff": 1471,
    "ink": 1472,
    " desper": 1473,
    "of this": 1474,
    "but to ": 1475,
    "lengthen": 1476,
    "prot": 1477,
    "BY": 1478,
    " being ": 1479,
    "OF ": 1480,
    "FRIAR ": 1481,
    "deserves ": 1482,
    "be": 1483,
    "nobl": 1484,
    " him": 1485,
    " friend": 1486,
    " may be ": 1487,
    "execution": 1488,
    "into his ": 1489,
    "change ": 1490,
    "ANT": 1491,
    "kn": 1492,
    "s for ": 1493,
    "LADY ": 1494,
    "es me ": 1495,
    "blood ": 1496,
    "ing a": 1497,
    "quer": 1498,
    "ceed": 1499,
    "damn": 1500,
    "ffection": 1501,
    " of thy ": 1502,
    "ood\n": 1503,
    "ever": 1504,
    "cc": 1505,
    "First, ": 1506,
    "roth": 1507,
    "ing in the ": 1508,
    "your grace": 1509,
    " as": 1510,
    "thou wert ": 1511,
    "wher": 1512,
    "us": 1513,
    "up ": 1514,
    "ence": 1515,
    "?\n\nDUKE OF AUMERLE:\n": 1516,
    "Pr": 1517,
    "thre": 1518,
    ":\nWhy, then ": 1519,
    "leg": 1520,
    "in her ": 1521,
    "reconc": 1522,
    "mine own": 1523,
    "I stand ": 1524,
    " sever": 1525,
    "rebellion": 1526,
    "as we ": 1527,
    " we are ": 1528,
    "VIRGIL": 1529,
    ".\nFor": 1530,
    "I tell thee, ": 1531,
    "hate ": 1532,
    "pal": 1533,
    "neck": 1534,
    "Thus ": 1535,
    "st thou": 1536,
    "pride ": 1537,
    "Vaughan, ": 1538,
    "sort": 1539,
    ".\n\nSecond Senator": 1540,
    "were, ": 1541,
    "cester": 1542,
    "fru": 1543,
    "ate the ": 1544,
    "away": 1545,
    "eek": 1546,
    "fall of ": 1547,
    "fle": 1548,
    "\nOf": 1549,
    " maid": 1550,
    "e?\n": 1551,
    " half": 1552,
    "if it be ": 1553,
    "call him ": 1554,
    "iter": 1555,
    "Shall ": 1556,
    ".\n\nPAULINA": 1557,
    "s,\nBut ": 1558,
    "your son": 1559,
    "often ": 1560,
    "chop": 1561,
    "exercise": 1562,
    "writ ": 1563,
    "e\nIn": 1564,
    "Pro": 1565,
    "my good lord": 1566,
    "FITZWATER": 1567,
    "Mayor": 1568,
    "in s": 1569,
    "ones": 1570,
    "er to the ": 1571,
    "have been": 1572,
    "ts that ": 1573,
    "Apoll": 1574,
    "most ": 1575,
    "age ": 1576,
    "s.\n\nKING RICHARD III": 1577,
    "cot": 1578,
    "?": 1579,
    "does ": 1580,
    "wid": 1581,
    "ately ": 1582,
    " brother, ": 1583,
    "sak": 1584,
    "carry ": 1585,
    "Our": 1586,
    "d, ": 1587,
    "is\n": 1588,
    "grea": 1589,
    "s.\n": 1590,
    "\nYou": 1591,
    "God's name, ": 1592,
    "wn": 1593,
    "pardon": 1594,
    "hast": 1595,
    "ind": 1596,
    "even now": 1597,
    "soon": 1598,
    "cast ": 1599,
    "su": 1600,
    "your st": 1601,
    "' ": 1602,
    "ERCUTIO:\n": 1603,
    ".\n\nThird ": 1604,
    "ife, ": 1605,
    ":\nThen": 1606,
    "gentle": 1607,
    "market-place": 1608,
    "saf": 1609,
    "thyself": 1610,
    "ing of the ": 1611,
    " of the ": 1612,
    "well": 1613,
    "GLOUCEST": 1614,
    "Lady": 1615,
    ", I fear": 1616,
    "shun": 1617,
    "s\nTo ": 1618,
    "eld ": 1619,
    "eed,\n": 1620,
    " we have ": 1621,
    "prison, ": 1622,
    ",\nTh": 1623,
    "ed with": 1624,
    "seems ": 1625,
    "find": 1626,
    "ed my ": 1627,
    "it\n": 1628,
    "hark": 1629,
    "disgu": 1630,
    "I pray": 1631,
    "fter ": 1632,
    " when ": 1633,
    "'s\n": 1634,
    "d and ": 1635,
    "cham": 1636,
    "cre": 1637,
    ". ": 1638,
    "wicked ": 1639,
    "the king's ": 1640,
    "Clifford, ": 1641,
    "ch": 1642,
    "death, and ": 1643,
    ":\nGive me ": 1644,
    "the god": 1645,
    "go ": 1646,
    "halt ": 1647,
    "eapon": 1648,
    "ta": 1649,
    "desire to ": 1650,
    "teeth": 1651,
    " can ": 1652,
    "!\n\nQUEEN ELIZABETH": 1653,
    "ready, ": 1654,
    "for what ": 1655,
    " hon": 1656,
    "How": 1657,
    "AL": 1658,
    "\nMore ": 1659,
    "moun": 1660,
    "foul": 1661,
    "fish": 1662,
    "hound": 1663,
    "FRI": 1664,
    "OP": 1665,
    "Then ": 1666,
    " bad": 1667,
    "whisper": 1668,
    " subj": 1669,
    "DUKE OF AUMERLE:\n": 1670,
    "ly to ": 1671,
    "; that's ": 1672,
    "tedi": 1673,
    " or ": 1674,
    "QUEEN ELIZABETH": 1675,
    "rough ": 1676,
    " subject": 1677,
    "Clarence ": 1678,
    "ale": 1679,
    ": thou": 1680,
    " the\n": 1681,
    " die ": 1682,
    "knif": 1683,
    "og": 1684,
    " breath": 1685,
    "place": 1686,
    "INC": 1687,
    "s: ": 1688,
    "Keeper": 1689,
    "oles": 1690,
    "speak": 1691,
    ".\nAnd, ": 1692,
    "seen": 1693,
    "But, ": 1694,
    "ock": 1695,
    "d ": 1696,
    "nature ": 1697,
    "orted ": 1698,
    "iv": 1699,
    "stum": 1700,
    "I beseech you, ": 1701,
    "his friend": 1702,
    "thy father ": 1703,
    ",\nSome ": 1704,
    "p": 1705,
    "lis": 1706,
    "about ": 1707,
    "again, ": 1708,
    "the devil": 1709,
    "More ": 1710,
    "that she ": 1711,
    "from": 1712,
    ",\nLest ": 1713,
    "house of York": 1714,
    "day's ": 1715,
    "know you": 1716,
    "Montague, ": 1717,
    " better ": 1718,
    "of that": 1719,
    "gone to ": 1720,
    ".\nWhat, ": 1721,
    " there": 1722,
    "upon you": 1723,
    " she ": 1724,
    "Gloucester": 1725,
    "understand ": 1726,
    "hop": 1727,
    "edd": 1728,
    "uc": 1729,
    "worthy ": 1730,
    "next ": 1731,
    " spr": 1732,
    "trike ": 1733,
    "Can you": 1734,
    "inc": 1735,
    " dead ": 1736,
    "out": 1737,
    "ster ": 1738,
    "aff": 1739,
    "troth, ": 1740,
    " mor": 1741,
    "CA": 1742,
    "deed": 1743,
    "hold": 1744,
    "sequ": 1745,
    "your brother": 1746,
    "a fear": 1747,
    "Thom": 1748,
    "er ": 1749,
    "Cates": 1750,
    "olk": 1751,
    "course": 1752,
    "fal": 1753,
    "power to ": 1754,
    "adam": 1755,
    ".\n\nGREGORY": 1756,
    "ing his ": 1757,
    "He ": 1758,
    "on his ": 1759,
    "perish": 1760,
    ":\nVery ": 1761,
    "Go ": 1762,
    "urge ": 1763,
    "our c": 1764,
    "have some ": 1765,
    "purge ": 1766,
    "due ": 1767,
    "you do ": 1768,
    "'st the ": 1769,
    "elt ": 1770,
    "Good morrow": 1771,
    "to-morrow": 1772,
    ".\n\nB": 1773,
    "thinks ": 1774,
    "med": 1775,
    "red, ": 1776,
    " suff": 1777,
    "too lat": 1778,
    " service ": 1779,
    " a man": 1780,
    "; not ": 1781,
    "hon": 1782,
    "neither": 1783,
    " would have ": 1784,
    "e.\n\nBUCKINGHAM": 1785,
    "continu": 1786,
    ":\nA ": 1787,
    "ghter": 1788,
    "LUCIO:\n": 1789,
    "ph": 1790,
    "damned ": 1791,
    "play the ": 1792,
    "men ": 1793,
    "b": 1794,
    " whom": 1795,
    "penit": 1796,
    "dry ": 1797,
    "sed ": 1798,
    "seal": 1799,
    "Hereford ": 1800,
    "fortun": 1801,
    "IDAMUS:\n": 1802,
    "T": 1803,
    "'d in": 1804,
    ":\nFor ": 1805,
    ";\nWh": 1806,
    "?\n\nLEONTES:\n": 1807,
    ":\nMake ": 1808,
    "rob": 1809,
    "your s": 1810,
    "Citizen": 1811,
    "ser": 1812,
    "abhor": 1813,
    "cour": 1814,
    " ther": 1815,
    "eed": 1816,
    "been ": 1817,
    " deed": 1818,
    "time,\n": 1819,
    "WILLOUGH": 1820,
    "kill him": 1821,
    "ouse": 1822,
    "good\n": 1823,
    ".\nWould ": 1824,
    " hundred ": 1825,
    "? a": 1826,
    "Thou art ": 1827,
    ":\nI": 1828,
    "Camill": 1829,
    "QUEEN MAR": 1830,
    "ref": 1831,
    "prett": 1832,
    "newly ": 1833,
    "I love ": 1834,
    "just ": 1835,
    "have": 1836,
    "ert ": 1837,
    "head\n": 1838,
    "o": 1839,
    ",\nHav": 1840,
    "len": 1841,
    "proportion": 1842,
    "hence, ": 1843,
    "to my ": 1844,
    "Qu": 1845,
    "ici": 1846,
    "Jack": 1847,
    "health": 1848,
    "rink": 1849,
    "RAT": 1850,
    "feit": 1851,
    " instru": 1852,
    "arms": 1853,
    "the s": 1854,
    "! my ": 1855,
    "brow": 1856,
    " man": 1857,
    "cannot be ": 1858,
    "good to ": 1859,
    "pardon me": 1860,
    "Even ": 1861,
    "var": 1862,
    "ison": 1863,
    " me the ": 1864,
    "prophec": 1865,
    "enter'd ": 1866,
    "when": 1867,
    "something ": 1868,
    " well, ": 1869,
    "o's ": 1870,
    "dost thou": 1871,
    "Whilst ": 1872,
    "honest": 1873,
    "es, and ": 1874,
    "name,\n": 1875,
    "acred ": 1876,
    "\nWhich": 1877,
    "; and ": 1878,
    " fair": 1879,
    "to the ": 1880,
    "ed for": 1881,
    "y, ": 1882,
    "e, ": 1883,
    "yo": 1884,
    "that you ": 1885,
    "lieve me, ": 1886,
    ":\nI pray ": 1887,
    " he, ": 1888,
    "A:\n": 1889,
    ".\nWhy ": 1890,
    "augh": 1891,
    "soldi": 1892,
    "natur": 1893,
    " did": 1894,
    "; c": 1895,
    "soft ": 1896,
    "miser": 1897,
    "you find ": 1898,
    "name?\n\nCORIOLANUS:\n": 1899,
    "How ": 1900,
    "they ": 1901,
    "roop": 1902,
    "es to ": 1903,
    " may": 1904,
    "swif": 1905,
    "voice ": 1906,
    "priv": 1907,
    "a dis": 1908,
    " prosper": 1909,
    "'Tis not ": 1910,
    "rust": 1911,
    ".\n\nDOR": 1912,
    " there, ": 1913,
    "purchase ": 1914,
    "who, ": 1915,
    "I saw": 1916,
    "fully ": 1917,
    "live, ": 1918,
    "Cor": 1919,
    "tale": 1920,
    ": I will": 1921,
    "Warwick": 1922,
    ".\n\nESCALUS:\n": 1923,
    "jo": 1924,
    "ORIOLANUS:\n": 1925,
    "live": 1926,
    "ensu": 1927,
    "that\n": 1928,
    "hand ": 1929,
    ".\n\nKING RICHARD II": 1930,
    "'d,\n": 1931,
    "under": 1932,
    "mion": 1933,
    " where": 1934,
    "anointed ": 1935,
    "ity ": 1936,
    ".\nO": 1937,
    "that the ": 1938,
    "lies ": 1939,
    "s": 1940,
    "purcha": 1941,
    "selves, ": 1942,
    "sense": 1943,
    " winter": 1944,
    "es and ": 1945,
    "fortune ": 1946,
    "church": 1947,
    "zen ": 1948,
    "ould\n": 1949,
    " bit": 1950,
    "people": 1951,
    "council": 1952,
    "weigh": 1953,
    "dem": 1954,
    ":\nTake ": 1955,
    "request ": 1956,
    "speed ": 1957,
    "Tran": 1958,
    "It ": 1959,
    " that, ": 1960,
    " with him": 1961,
    "shook": 1962,
    ",\nB": 1963,
    "only ": 1964,
    " clo": 1965,
    "s a": 1966,
    "courage ": 1967,
    ",\nTo ": 1968,
    " cri": 1969,
    "daughter": 1970,
    "lip": 1971,
    "petition": 1972,
    " still ": 1973,
    " at once ": 1974,
    " thus ": 1975,
    "To ": 1976,
    "Christ": 1977,
    ".\n\nLADY ANNE:\n": 1978,
    ":\nNow": 1979,
    ":\nThou": 1980,
    "excellent ": 1981,
    "! the ": 1982,
    " shame, ": 1983,
    "ie, ": 1984,
    "freedom": 1985,
    "rah": 1986,
    "name of ": 1987,
    "two": 1988,
    "hath the ": 1989,
    "part ": 1990,
    "differ": 1991,
    "OPSA": 1992,
    "NOR": 1993,
    "?\nWhy ": 1994,
    "UCENTIO:\n": 1995,
    "Let's ": 1996,
    "Very ": 1997,
    "ether": 1998,
    "FITZ": 1999,
    "in p": 2000,
    "LIFFORD": 2001,
    "desper": 2002,
    "mod": 2003,
    "stock": 2004,
    "Officer": 2005,
    " my poor": 2006,
    "hat, ": 2007,
    "knee": 2008,
    "Nor ": 2009,
    "noble": 2010,
    "HENRY P": 2011,
    "lief": 2012,
    "grand": 2013,
    "OR": 2014,
    "io": 2015,
    "uster": 2016,
    " aught ": 2017,
    "ffer": 2018,
    "s;\nBut ": 2019,
    "Plantagenet, ": 2020,
    "hid": 2021,
    "St": 2022,
    "At ": 2023,
    "seeing": 2024,
    ":\nI cannot ": 2025,
    "majest": 2026,
    "ender ": 2027,
    "aliv": 2028,
    "indeed, ": 2029,
    "kill'd": 2030,
    "?\n\nC": 2031,
    "your": 2032,
    "un": 2033,
    " tear": 2034,
    "ing:": 2035,
    "sing ": 2036,
    "vial": 2037,
    "in g": 2038,
    "is dead": 2039,
    "es\nTo ": 2040,
    "foot ": 2041,
    " heard ": 2042,
    "Ro": 2043,
    "ile ": 2044,
    "for my ": 2045,
    "a most ": 2046,
    " how to ": 2047,
    "They have ": 2048,
    "Senator": 2049,
    "'st": 2050,
    "soul's ": 2051,
    "be so ": 2052,
    "FLORIZEL": 2053,
    "lth": 2054,
    " begg": 2055,
    "Marshal": 2056,
    " fir": 2057,
    "I may be ": 2058,
    "eave ": 2059,
    "?\n\nJOHN OF GAUNT": 2060,
    "admir": 2061,
    "member": 2062,
    "cen": 2063,
    "aw": 2064,
    "plaint": 2065,
    "fold ": 2066,
    "king": 2067,
    "sper": 2068,
    "way ": 2069,
    "ors ": 2070,
    "deputy": 2071,
    "hom": 2072,
    "natural": 2073,
    "estil": 2074,
    "approach": 2075,
    "oor ": 2076,
    "found": 2077,
    " my brother": 2078,
    "offend ": 2079,
    "virtu": 2080,
    "y and ": 2081,
    "plebeian": 2082,
    "art thou": 2083,
    "US": 2084,
    "thing to ": 2085,
    " it": 2086,
    "eight": 2087,
    " they ": 2088,
    "s,\nA": 2089,
    "Mark": 2090,
    "worm": 2091,
    "\nShould ": 2092,
    ",\nI would ": 2093,
    "orch": 2094,
    ",\nI ": 2095,
    "he hath": 2096,
    "friendship": 2097,
    "eyes": 2098,
    "said, ": 2099,
    "e my ": 2100,
    "wheel": 2101,
    "ended": 2102,
    "Lords, ": 2103,
    "glad to ": 2104,
    "had, ": 2105,
    " those that ": 2106,
    ",\nWhich ": 2107,
    "should be ": 2108,
    "Petruchi": 2109,
    "WARWIC": 2110,
    "vessel": 2111,
    "weary ": 2112,
    " beh": 2113,
    "GLO": 2114,
    "ing her": 2115,
    "B": 2116,
    "may ": 2117,
    "my brother ": 2118,
    "the most ": 2119,
    "about": 2120,
    "onour": 2121,
    "you have ": 2122,
    " there is ": 2123,
    ":\nYou may ": 2124,
    " af": 2125,
    "hat's the matter": 2126,
    "DU": 2127,
    "this": 2128,
    "? and ": 2129,
    "LARENCE:\n": 2130,
    "you\n": 2131,
    "joint": 2132,
    "leep": 2133,
    ".\n\nELBOW": 2134,
    "I st": 2135,
    "tell me, ": 2136,
    "night-": 2137,
    "lat": 2138,
    "?\n\nESCALUS:\n": 2139,
    " shor": 2140,
    "pray, ": 2141,
    " you ": 2142,
    " comfor": 2143,
    "!\n\nS": 2144,
    "eevish": 2145,
    "say ": 2146,
    "order ": 2147,
    " soldier": 2148,
    "me": 2149,
    " shall we ": 2150,
    "Pray you, ": 2151,
    "wil": 2152,
    "my soul": 2153,
    " fares ": 2154,
    "mone": 2155,
    "that have ": 2156,
    "poll": 2157,
    "ght": 2158,
    "access ": 2159,
    " com": 2160,
    "ash": 2161,
    ".\n\nGLOUCESTER": 2162,
    " div": 2163,
    "This is the ": 2164,
    " of what ": 2165,
    "s;": 2166,
    "Nay, ": 2167,
    " stay": 2168,
    ":\nWe ": 2169,
    "spir": 2170,
    "Rom": 2171,
    "entreat": 2172,
    "sound": 2173,
    "resol": 2174,
    ".\n\nServant": 2175,
    "I will be ": 2176,
    "t, to ": 2177,
    " the king": 2178,
    "you talk": 2179,
    "follow": 2180,
    "!\n\nCOMINIUS:\n": 2181,
    "dost thou ": 2182,
    "go": 2183,
    "good": 2184,
    "ament ": 2185,
    " about ": 2186,
    "e.\n\nLEONTES:\n": 2187,
    "ap": 2188,
    "Answ": 2189,
    "tig": 2190,
    "liege.\n\n": 2191,
    "former": 2192,
    "is the matter": 2193,
    "promp": 2194,
    " den": 2195,
    "gic": 2196,
    "respect": 2197,
    "Know": 2198,
    "charg": 2199,
    ";\nC": 2200,
    "doubt ": 2201,
    "par": 2202,
    "KING HENRY VI": 2203,
    "deserv": 2204,
    "to your ": 2205,
    "?\n\nCLARENCE:\n": 2206,
    "fain": 2207,
    "fair": 2208,
    "no man": 2209,
    " priv": 2210,
    " merc": 2211,
    "one.\n\n": 2212,
    "poster": 2213,
    "lords,\n": 2214,
    "s, to ": 2215,
    "smooth": 2216,
    " the world ": 2217,
    " hur": 2218,
    " bear": 2219,
    "case ": 2220,
    "know": 2221,
    "ien": 2222,
    "respect ": 2223,
    "Lord Hastings ": 2224,
    "in their ": 2225,
    "follows ": 2226,
    "?\n\nPOMPEY": 2227,
    "life\n": 2228,
    ",": 2229,
    "frail": 2230,
    "to be\n": 2231,
    "persu": 2232,
    "lose ": 2233,
    "TYRREL": 2234,
    "!\nThou": 2235,
    "t\nAnd ": 2236,
    "kingly ": 2237,
    " forth": 2238,
    "While ": 2239,
    "behold": 2240,
    "it and ": 2241,
    "deed, ": 2242,
    " gra": 2243,
    " hard": 2244,
    "here.\n": 2245,
    "be my ": 2246,
    "bird": 2247,
    "Messenger": 2248,
    "news": 2249,
    "accomp": 2250,
    ":\nWhere's ": 2251,
    "AN": 2252,
    "let ": 2253,
    "Good ": 2254,
    "resp": 2255,
    "like to ": 2256,
    "on my ": 2257,
    " bu": 2258,
    " scar": 2259,
    "remov": 2260,
    "honour": 2261,
    "Look": 2262,
    "US:\n": 2263,
    "?\nO": 2264,
    "LE": 2265,
    "fast": 2266,
    "you will ": 2267,
    "pass ": 2268,
    "Alas, ": 2269,
    "blest ": 2270,
    "tent ": 2271,
    "ghostly ": 2272,
    "rar": 2273,
    "let the ": 2274,
    "exp": 2275,
    "opinion": 2276,
    "traitor, ": 2277,
    "nat": 2278,
    "pet ": 2279,
    "fellow": 2280,
    "rumour": 2281,
    "idence ": 2282,
    "name, ": 2283,
    "iff": 2284,
    ":\nThou ": 2285,
    "Tell me ": 2286,
    "row": 2287,
    "brave ": 2288,
    "inch": 2289,
    "is so ": 2290,
    "tre": 2291,
    "ect": 2292,
    " ask": 2293,
    "ose ": 2294,
    "L": 2295,
    "ites and ": 2296,
    " sign": 2297,
    "blush": 2298,
    "t, ": 2299,
    "little": 2300,
    ", no ": 2301,
    "disdain": 2302,
    "foreign": 2303,
    "oful": 2304,
    "rascal": 2305,
    "troth": 2306,
    "light, ": 2307,
    "plain": 2308,
    "King Edward ": 2309,
    " you have ": 2310,
    "please": 2311,
    "sh": 2312,
    " contra": 2313,
    "on you": 2314,
    "when the ": 2315,
    "prove ": 2316,
    "ol": 2317,
    "pain": 2318,
    "Madam, ": 2319,
    "d to ": 2320,
    "hair": 2321,
    "spit ": 2322,
    "?\n\nM": 2323,
    " than": 2324,
    "as he ": 2325,
    "crown": 2326,
    "vault": 2327,
    "play": 2328,
    "ing them": 2329,
    "Au": 2330,
    " stay ": 2331,
    "ANGEL": 2332,
    "rather": 2333,
    "I hear, ": 2334,
    ".\nThen, ": 2335,
    "ve\n": 2336,
    "Pray ": 2337,
    ";\nFor, ": 2338,
    " were ": 2339,
    "England": 2340,
    " mean ": 2341,
    "pale ": 2342,
    "school": 2343,
    "mer ": 2344,
    "s of his ": 2345,
    "shoul": 2346,
    "deliver ": 2347,
    "ood ": 2348,
    "s; ": 2349,
    "o'clock": 2350,
    "they are ": 2351,
    "without ": 2352,
    "him that ": 2353,
    " mer": 2354,
    "children's ": 2355,
    " poor": 2356,
    " abs": 2357,
    "myself": 2358,
    "help": 2359,
    "with some ": 2360,
    "eth": 2361,
    "Signior ": 2362,
    "son": 2363,
    "\nhis ": 2364,
    "\nWhen": 2365,
    "kill": 2366,
    "nor": 2367,
    "enced ": 2368,
    "elow": 2369,
    "sk": 2370,
    "e?\n\nCORIOLANUS:\n": 2371,
    "that which": 2372,
    "visit ": 2373,
    ":\nCon": 2374,
    "conf": 2375,
    "but not ": 2376,
    " son": 2377,
    " with all ": 2378,
    ",--": 2379,
    "lady": 2380,
    "I should not ": 2381,
    "proclaim": 2382,
    "AMILLO:\n": 2383,
    "ancest": 2384,
    "requir": 2385,
    "ad, ": 2386,
    ", where ": 2387,
    " sin": 2388,
    "?\n\nRATCLIFF": 2389,
    "blemish": 2390,
    "draw": 2391,
    "mir": 2392,
    "ument": 2393,
    "?\n\nMAMILLIUS:\n": 2394,
    "3 KING HENRY VI\n\n": 2395,
    "LADY CAPULET:\n": 2396,
    "ior": 2397,
    "anc": 2398,
    "thing that ": 2399,
    " here ": 2400,
    ".\n\nWARWICK:\nAnd ": 2401,
    "drawn": 2402,
    "used": 2403,
    "GR": 2404,
    "s it ": 2405,
    "roth, ": 2406,
    ".\n\nRICHARD": 2407,
    "your highness ": 2408,
    "ry": 2409,
    "light ": 2410,
    "Here ": 2411,
    "would not ": 2412,
    "unto the ": 2413,
    "journe": 2414,
    ".\nH": 2415,
    "nuptial": 2416,
    "trumpet": 2417,
    "olesome ": 2418,
    ".\n\nC": 2419,
    ",\n'Tis ": 2420,
    "ell ": 2421,
    "s? ": 2422,
    "less than": 2423,
    "bra": 2424,
    "tial": 2425,
    "warri": 2426,
    "answer'd": 2427,
    "back to ": 2428,
    "ase ": 2429,
    "confirm": 2430,
    "have\n": 2431,
    "per": 2432,
    "contra": 2433,
    "quench": 2434,
    ".' ": 2435,
    "consent ": 2436,
    "!\n": 2437,
    " crown": 2438,
    " a poor": 2439,
    "father": 2440,
    "trum": 2441,
    "chequ": 2442,
    "Hortensio, ": 2443,
    "fierce ": 2444,
    "ly b": 2445,
    "inform": 2446,
    "Jesu": 2447,
    "EOR": 2448,
    " me": 2449,
    "I but ": 2450,
    "outward ": 2451,
    "Barnard": 2452,
    "character": 2453,
    " short": 2454,
    "then": 2455,
    "o-": 2456,
    "York and ": 2457,
    "true.\n\n": 2458,
    "of our ": 2459,
    "ves ": 2460,
    "occup": 2461,
    "selves": 2462,
    " thou d": 2463,
    ":\nLet me ": 2464,
    "ement ": 2465,
    "OM": 2466,
    "each": 2467,
    "helm": 2468,
    ":\nC": 2469,
    "your c": 2470,
    " do": 2471,
    "prevent": 2472,
    "blown": 2473,
    "Unless ": 2474,
    "instrument": 2475,
    "elcome ": 2476,
    "his\n": 2477,
    "shows ": 2478,
    "consul": 2479,
    "you shall": 2480,
    ":\nSir": 2481,
    " corn": 2482,
    "particular": 2483,
    "TYR": 2484,
    "body ": 2485,
    "Master F": 2486,
    "!\nHow": 2487,
    ",\nFor": 2488,
    "bod": 2489,
    "my lord.\n\nKING RICHARD III": 2490,
    " brother's ": 2491,
    "bark": 2492,
    "En": 2493,
    "Saint ": 2494,
    "n": 2495,
    "s,\nMy ": 2496,
    "tres": 2497,
    ":\nO, ": 2498,
    "I would not ": 2499,
    "with one ": 2500,
    "atter": 2501,
    "soever ": 2502,
    "en": 2503,
    "Ju": 2504,
    " as the ": 2505,
    "es not ": 2506,
    "fetch": 2507,
    "ful king": 2508,
    "gold": 2509,
    "were I ": 2510,
    "s, or": 2511,
    ".\n3 KING HENRY VI\n\n": 2512,
    " all my heart": 2513,
    "veni": 2514,
    "eseech you, ": 2515,
    "; or": 2516,
    "bet": 2517,
    "char": 2518,
    "nothing": 2519,
    "sovereign": 2520,
    "na": 2521,
    "ice": 2522,
    "corn": 2523,
    "Prithee, ": 2524,
    "London": 2525,
    " of death": 2526,
    " sound ": 2527,
    "tter ": 2528,
    "rench": 2529,
    "throat ": 2530,
    "else, ": 2531,
    ".\n\nKING HENRY VI": 2532,
    ":\nNay, but ": 2533,
    ": I'll ": 2534,
    "truth, ": 2535,
    "der the ": 2536,
    " sick": 2537,
    "ag": 2538,
    "mask": 2539,
    "\nB": 2540,
    " this is ": 2541,
    ", if you": 2542,
    "joyful": 2543,
    "las, ": 2544,
    "creat": 2545,
    "nine ": 2546,
    ", or ": 2547,
    " shame ": 2548,
    "they were ": 2549,
    "root ": 2550,
    ".\n\nTYBALT": 2551,
    "uest": 2552,
    "young and ": 2553,
    "'d ": 2554,
    "tell me ": 2555,
    "vey ": 2556,
    "mall": 2557,
    "fully": 2558,
    " of you": 2559,
    "lie ": 2560,
    "King of ": 2561,
    "ge\n": 2562,
    "expect ": 2563,
    "work": 2564,
    " head": 2565,
    "shir": 2566,
    "fo": 2567,
    "const": 2568,
    ", I ": 2569,
    "full of ": 2570,
    " thousand": 2571,
    "?\nFor": 2572,
    "Polix": 2573,
    "angry ": 2574,
    "in Corioli": 2575,
    ";\nIt ": 2576,
    "is the ": 2577,
    "cil": 2578,
    "peer": 2579,
    "\nTo speak": 2580,
    ".\n\nLORD RO": 2581,
    " master": 2582,
    "ut, ": 2583,
    " head ": 2584,
    "ing with": 2585,
    " princely ": 2586,
    "rection": 2587,
    "ulter": 2588,
    " a\n": 2589,
    "vouch": 2590,
    "low": 2591,
    ":\nFarewell": 2592,
    "small": 2593,
    "benefit ": 2594,
    "strew": 2595,
    " batt": 2596,
    "fought ": 2597,
    " peace ": 2598,
    "done,\nAnd ": 2599,
    "accident": 2600,
    "rich": 2601,
    " marriag": 2602,
    " upon": 2603,
    "e is ": 2604,
    "'d\nTo ": 2605,
    " with ": 2606,
    "what is ": 2607,
    "! a": 2608,
    "mist": 2609,
    "marri": 2610,
    "llen": 2611,
    "throw": 2612,
    "chide ": 2613,
    "of your ": 2614,
    "upon him": 2615,
    " bo": 2616,
    "rotten": 2617,
    "What, ": 2618,
    " truth": 2619,
    "abroad ": 2620,
    "icular": 2621,
    "point ": 2622,
    " tri": 2623,
    "offences ": 2624,
    "married": 2625,
    " ": 2626,
    "QUEEN MARGARET": 2627,
    "ender": 2628,
    "er than": 2629,
    "will you": 2630,
    " in this ": 2631,
    "this ": 2632,
    "run": 2633,
    ",\nOr": 2634,
    " soul": 2635,
    "!\n\nVOLUMNIA": 2636,
    "woe ": 2637,
    "stu": 2638,
    "melanch": 2639,
    "spent": 2640,
    "pregn": 2641,
    " S": 2642,
    "beseem": 2643,
    "needs ": 2644,
    "adv": 2645,
    " whence ": 2646,
    "s\nA": 2647,
    "? or": 2648,
    "my brother": 2649,
    ";\nHow": 2650,
    "U": 2651,
    "justice ": 2652,
    "stir": 2653,
    "garment": 2654,
    "ed\nWith": 2655,
    "shrou": 2656,
    ",\nHave ": 2657,
    "atc": 2658,
    " marri": 2659,
    "justice, ": 2660,
    "hand": 2661,
    "ouldst thou": 2662,
    "istress ": 2663,
    "come.\n\n": 2664,
    " turn": 2665,
    "iful": 2666,
    "es!\n\n": 2667,
    " thou dost ": 2668,
    "LEW": 2669,
    "rant, ": 2670,
    "s not ": 2671,
    " morn": 2672,
    "Isabel": 2673,
    "e'": 2674,
    ".\n\nAll": 2675,
    "And, ": 2676,
    " speak": 2677,
    "dust": 2678,
    "d,\nTo ": 2679,
    "rup": 2680,
    " the crown": 2681,
    "I'll swear": 2682,
    "ily, ": 2683,
    " do not ": 2684,
    "but a ": 2685,
    "knee ": 2686,
    "Her ": 2687,
    "pression": 2688,
    "IO:\n": 2689,
    "use me ": 2690,
    "e, but ": 2691,
    "gain": 2692,
    "Prince ": 2693,
    " that ": 2694,
    "s will ": 2695,
    "eneral": 2696,
    "matter ": 2697,
    "of w": 2698,
    "asid": 2699,
    "ch'd ": 2700,
    "leisure ": 2701,
    "ousin ": 2702,
    "al, ": 2703,
    " in his ": 2704,
    "with a": 2705,
    "luck": 2706,
    "bring": 2707,
    "turn": 2708,
    "fool": 2709,
    "of your": 2710,
    "is thy ": 2711,
    "within": 2712,
    "as the ": 2713,
    "'d the ": 2714,
    "arden": 2715,
    "y": 2716,
    "well as ": 2717,
    "Bush": 2718,
    "\nHad ": 2719,
    "comman": 2720,
    "park": 2721,
    "Gentleman": 2722,
    "flay": 2723,
    "Pray, ": 2724,
    " up": 2725,
    "tern": 2726,
    "n ": 2727,
    ":\nThough": 2728,
    "I have been": 2729,
    "DUCHESS ": 2730,
    "Peace, ": 2731,
    "set down": 2732,
    "alisbur": 2733,
    "sir; ": 2734,
    " ac": 2735,
    "But ": 2736,
    "Lord Hastings, ": 2737,
    "for these ": 2738,
    ". If you": 2739,
    " thri": 2740,
    "reconcile ": 2741,
    ",\nA ": 2742,
    "Help": 2743,
    " silver": 2744,
    "s' ": 2745,
    "irect": 2746,
    "pierc": 2747,
    "give ": 2748,
    "ill": 2749,
    " as\n": 2750,
    "music": 2751,
    ",\nUnless ": 2752,
    "a fool": 2753,
    ":\nBecause ": 2754,
    "you, my ": 2755,
    "labour": 2756,
    "\nDoth": 2757,
    "bitter": 2758,
    ":\nMy lord": 2759,
    "gone.\n\n": 2760,
    "lay as": 2761,
    "Warwick, ": 2762,
    "God save ": 2763,
    " hor": 2764,
    "suad": 2765,
    " more, ": 2766,
    "s you ": 2767,
    "Somerset, ": 2768,
    "agu": 2769,
    "one word": 2770,
    "?\nW": 2771,
    "esides, ": 2772,
    "hate,\n": 2773,
    "astard": 2774,
    "you may": 2775,
    "That ": 2776,
    "no, no, ": 2777,
    "good, ": 2778,
    "too ": 2779,
    "i'": 2780,
    "each other's ": 2781,
    "en, ": 2782,
    "hall ": 2783,
    "fardel": 2784,
    "condition": 2785,
    "Let me ": 2786,
    "news ": 2787,
    "maz": 2788,
    "that ": 2789,
    " believe ": 2790,
    "once, ": 2791,
    "love": 2792,
    "bed": 2793,
    "conscience ": 2794,
    "imag": 2795,
    "e.\n\nKING RICHARD II": 2796,
    "determin": 2797,
    "hol": 2798,
    "limb": 2799,
    "Warwick's ": 2800,
    "true,\n": 2801,
    "amen": 2802,
    "face to ": 2803,
    "eth ": 2804,
    "ere": 2805,
    "e.\n\nKING EDWARD IV": 2806,
    "I warrant ": 2807,
    "conc": 2808,
    "temp": 2809,
    "kindred ": 2810,
    "! why, ": 2811,
    "your gra": 2812,
    "Well": 2813,
    "Grum": 2814,
    "ous,\n": 2815,
    "nose ": 2816,
    " fl": 2817,
    "ed\nIn": 2818,
    "best": 2819,
    "loves": 2820,
    "JULI": 2821,
    "Conspirator": 2822,
    "ak": 2823,
    ":\nHere, ": 2824,
    "daughter's ": 2825,
    "real": 2826,
    "Paris ": 2827,
    "ENEN": 2828,
    "pity ": 2829,
    " pi": 2830,
    ",\nWith all the ": 2831,
    "re": 2832,
    "iest ": 2833,
    " disgrace": 2834,
    "cousin": 2835,
    "convey": 2836,
    ":\nFor": 2837,
    "pin": 2838,
    "ARL": 2839,
    "ects ": 2840,
    "don": 2841,
    ": I'll": 2842,
    ":\nThy ": 2843,
    "heavy ": 2844,
    ". And ": 2845,
    "ERDIT": 2846,
    "for their": 2847,
    " mouth": 2848,
    "Whither": 2849,
    " you\n": 2850,
    "weed": 2851,
    "marry ": 2852,
    "sense ": 2853,
    "we were ": 2854,
    ".\n\nSAMPSON": 2855,
    " mine": 2856,
    "possi": 2857,
    "mercy ": 2858,
    "\nG": 2859,
    "gives ": 2860,
    "makes ": 2861,
    "term": 2862,
    "excell": 2863,
    "Yes, ": 2864,
    "thus, ": 2865,
    "doom": 2866,
    "ives ": 2867,
    "\nAs ": 2868,
    " and his ": 2869,
    "\nAre ": 2870,
    ".\n\nJOHN OF GAUNT": 2871,
    "is he ": 2872,
    "sure to ": 2873,
    "that was ": 2874,
    "love's ": 2875,
    "clock": 2876,
    "I did": 2877,
    "mile": 2878,
    "or": 2879,
    "hepherd": 2880,
    "proof": 2881,
    "gainst ": 2882,
    " out ": 2883,
    " dev": 2884,
    "kind ": 2885,
    ":\nHere comes ": 2886,
    ":\nI beseech": 2887,
    "ist": 2888,
    "for you": 2889,
    "fess ": 2890,
    " gracious ": 2891,
    "and these ": 2892,
    "\nW": 2893,
    "the sun": 2894,
    "rovost": 2895,
    "?\n\nRICHARD": 2896,
    "Ty": 2897,
    "TRANIO:\n": 2898,
    "s as ": 2899,
    "nose": 2900,
    "X": 2901,
    "coal": 2902,
    "a happy ": 2903,
    "iding": 2904,
    "f": 2905,
    "with t": 2906,
    "country, ": 2907,
    "s all": 2908,
    "as my ": 2909,
    "t-": 2910,
    "I think": 2911,
    "let's ": 2912,
    "I am s": 2913,
    "hell ": 2914,
    "vulgar": 2915,
    "What ": 2916,
    "MENENIUS:\n": 2917,
    "ently ": 2918,
    "victory ": 2919,
    "oo ": 2920,
    "ARIS:\n": 2921,
    "al ": 2922,
    "noise ": 2923,
    "might have ": 2924,
    "ym": 2925,
    "vo": 2926,
    " po": 2927,
    ": g": 2928,
    "ORD": 2929,
    "voice": 2930,
    " fru": 2931,
    "drink": 2932,
    "lived": 2933,
    "mock": 2934,
    "dull ": 2935,
    "and my ": 2936,
    "our ": 2937,
    "from his ": 2938,
    "You ": 2939,
    "swee": 2940,
    "s?\n": 2941,
    "orthy ": 2942,
    "Long": 2943,
    "note ": 2944,
    ";\nAs ": 2945,
    "ity\n": 2946,
    "musician": 2947,
    "rou": 2948,
    "done,\n": 2949,
    "Hasting": 2950,
    " thee, ": 2951,
    " become ": 2952,
    ":\nS": 2953,
    "HENRY BOLINGBROK": 2954,
    "citizen": 2955,
    " to-morrow": 2956,
    "crave ": 2957,
    "ARN": 2958,
    "retch": 2959,
    ",\nHow": 2960,
    ":\nAnd, ": 2961,
    "for his ": 2962,
    "anle": 2963,
    "mali": 2964,
    "venom": 2965,
    "babe": 2966,
    "from this ": 2967,
    "leads ": 2968,
    "of a ": 2969,
    "sport ": 2970,
    " mo": 2971,
    "Richmond ": 2972,
    "rrel": 2973,
    "ond": 2974,
    "rom": 2975,
    "ilgr": 2976,
    "JO": 2977,
    " come to ": 2978,
    " proud ": 2979,
    "s of this ": 2980,
    "of\n": 2981,
    "subj": 2982,
    "Is ": 2983,
    "form": 2984,
    "IAN": 2985,
    "thumber": 2986,
    "pom": 2987,
    "third ": 2988,
    "yea, ": 2989,
    ".\nIs ": 2990,
    "am I": 2991,
    " content": 2992,
    "cla": 2993,
    "chiefest ": 2994,
    "ISABEL": 2995,
    "sand": 2996,
    "my life ": 2997,
    ": b": 2998,
    "it so": 2999,
    "!\n\nHASTINGS:\n": 3000,
    "hur": 3001,
    ": his ": 3002,
    "How!": 3003,
    "in their": 3004,
    " subst": 3005,
    "s,\nS": 3006,
    "stay, ": 3007,
    " triumph": 3008,
    "ride ": 3009,
    "with": 3010,
    "xfor": 3011,
    "in w": 3012,
    "ardener": 3013,
    "reach": 3014,
    "was\n": 3015,
    "strain": 3016,
    "ell": 3017,
    " con": 3018,
    "be the ": 3019,
    ", by the ": 3020,
    "north": 3021,
    "grace": 3022,
    "ease ": 3023,
    ", this ": 3024,
    "forbear": 3025,
    "clamation": 3026,
    "sul": 3027,
    "pas": 3028,
    "side ": 3029,
    "upon ": 3030,
    "Look, ": 3031,
    "Jo": 3032,
    "cont": 3033,
    "y to ": 3034,
    ", he ": 3035,
    "Cominius ": 3036,
    " think": 3037,
    "My lord": 3038,
    "ff": 3039,
    " thou shalt ": 3040,
    "think it ": 3041,
    ".--": 3042,
    "keep": 3043,
    ":\nFrom": 3044,
    "slain": 3045,
    "I hear": 3046,
    "call ": 3047,
    ". What, ": 3048,
    ".\n\nANGELO:\n": 3049,
    "you did ": 3050,
    "her with": 3051,
    "he ": 3052,
    "ry's ": 3053,
    "to them": 3054,
    "weep": 3055,
    "havi": 3056,
    "pres": 3057,
    "ror": 3058,
    " hence": 3059,
    "ning ": 3060,
    "es\n": 3061,
    "lives": 3062,
    "spent ": 3063,
    "strong": 3064,
    "virtuous ": 3065,
    "abroad": 3066,
    " hand ": 3067,
    ".\n\nARCH": 3068,
    "voices ": 3069,
    "ground, ": 3070,
    "from her ": 3071,
    "clo": 3072,
    "seize ": 3073,
    "entrea": 3074,
    "it to ": 3075,
    "sol": 3076,
    "Richard's ": 3077,
    "!\nThe ": 3078,
    "a thousand ": 3079,
    "vaul": 3080,
    "effect ": 3081,
    "haply ": 3082,
    "the queen's ": 3083,
    "ry,\n": 3084,
    "ek": 3085,
    "ESCA": 3086,
    "show ": 3087,
    " star": 3088,
    "s.\n\nQUEEN ELIZABETH": 3089,
    ",\nS": 3090,
    "three ": 3091,
    "hide ": 3092,
    "world's ": 3093,
    "believ": 3094,
    "George ": 3095,
    ":\nHad ": 3096,
    "Coriolanus ": 3097,
    "es him": 3098,
    "ver": 3099,
    " prof": 3100,
    "how now, ": 3101,
    "'st, ": 3102,
    "VOLUMNIA:\n": 3103,
    " se": 3104,
    "RICHARD I": 3105,
    "fear": 3106,
    " away": 3107,
    "done ": 3108,
    "!\n\nWARWICK": 3109,
    "we, ": 3110,
    "iev": 3111,
    "ISHOP": 3112,
    "land": 3113,
    "none ": 3114,
    "not my ": 3115,
    "eturn": 3116,
    "nought ": 3117,
    "'d your ": 3118,
    "ip": 3119,
    "c": 3120,
    "sad ": 3121,
    " hearts ": 3122,
    "d": 3123,
    "inted ": 3124,
    "most": 3125,
    "?\n\nKING HENRY VI": 3126,
    "rang": 3127,
    "I am g": 3128,
    "hou": 3129,
    ":\nHold, ": 3130,
    "heart, ": 3131,
    "do": 3132,
    "banish'd ": 3133,
    ".\n\nMARIANA:\n": 3134,
    "of this ": 3135,
    "sure ": 3136,
    "shall know": 3137,
    "itizen": 3138,
    "; for ": 3139,
    "Mis": 3140,
    "ine ": 3141,
    "vet": 3142,
    "Vols": 3143,
    "knock": 3144,
    "Sir, ": 3145,
    "VOLUMN": 3146,
    "he had ": 3147,
    "here,\n": 3148,
    "onoun": 3149,
    "adst thou": 3150,
    "\nMust ": 3151,
    "beast": 3152,
    "AUFID": 3153,
    " in your": 3154,
    "vour": 3155,
    "m": 3156,
    "?\n\nCORIOLANUS:\n": 3157,
    " had ": 3158,
    "Glou": 3159,
    "how to ": 3160,
    "east ": 3161,
    "ran": 3162,
    "io, ": 3163,
    "say": 3164,
    "like": 3165,
    "OLI": 3166,
    " affor": 3167,
    "ted, ": 3168,
    "shepher": 3169,
    "An ": 3170,
    "Only ": 3171,
    "q": 3172,
    " dri": 3173,
    "r": 3174,
    "? w": 3175,
    "to do ": 3176,
    " wit": 3177,
    " peace": 3178,
    ":\nWith": 3179,
    "Upon": 3180,
    "direction": 3181,
    ",\nW": 3182,
    "lish": 3183,
    "?\nAnd ": 3184,
    "ends\n": 3185,
    "face, ": 3186,
    " wif": 3187,
    "e.\n\nCORIOLANUS:\n": 3188,
    "call'd ": 3189,
    "taken": 3190,
    "immortal": 3191,
    ", when": 3192,
    " comp": 3193,
    "or no": 3194,
    ": the ": 3195,
    " prou": 3196,
    "eseech": 3197,
    "what, ": 3198,
    "Though": 3199,
    "compan": 3200,
    " cold ": 3201,
    "suit": 3202,
    "li": 3203,
    "bass": 3204,
    "villain, ": 3205,
    "\nOr": 3206,
    "has ": 3207,
    " st": 3208,
    "RINCE EDWARD": 3209,
    "chi": 3210,
    "D": 3211,
    "rug": 3212,
    " shame": 3213,
    ":\nSay ": 3214,
    "LIFF": 3215,
    "Friar": 3216,
    "ish": 3217,
    "smile": 3218,
    "tears ": 3219,
    "appeal": 3220,
    ".\nAh, ": 3221,
    "bitious ": 3222,
    " so": 3223,
    ": they ": 3224,
    "bun": 3225,
    "sen": 3226,
    "heel": 3227,
    "ter": 3228,
    "ther": 3229,
    "y,\n": 3230,
    "lit": 3231,
    "at": 3232,
    "\nS": 3233,
    "bend ": 3234,
    "TR": 3235,
    "Lord Angelo": 3236,
    "him in the ": 3237,
    " so much": 3238,
    "forget": 3239,
    " him from": 3240,
    "score ": 3241,
    "AE": 3242,
    " thre": 3243,
    "Der": 3244,
    " a": 3245,
    "po": 3246,
    "ime ": 3247,
    "s us ": 3248,
    "this is ": 3249,
    "judge ": 3250,
    ":\nMy gracious ": 3251,
    "denied ": 3252,
    "ry, ": 3253,
    "I must ": 3254,
    " can": 3255,
    "hat": 3256,
    "\nWhere ": 3257,
    "Burg": 3258,
    "ourn": 3259,
    "pr": 3260,
    "sentence ": 3261,
    "?\n\nFirst ": 3262,
    "man ": 3263,
    " brother": 3264,
    "scal": 3265,
    "of the house": 3266,
    "e.\n\nCAMILLO:\n": 3267,
    "it be ": 3268,
    ", 'tis ": 3269,
    "battle ": 3270,
    "devo": 3271,
    "er to ": 3272,
    "Thomas ": 3273,
    "an": 3274,
    " did ": 3275,
    " sup": 3276,
    "March": 3277,
    "ouse ": 3278,
    "with f": 3279,
    "ank": 3280,
    "d\nBy ": 3281,
    "here comes ": 3282,
    "; who ": 3283,
    " sir": 3284,
    "OPSA:\n": 3285,
    "five ": 3286,
    "ith": 3287,
    "ushion": 3288,
    "ful ": 3289,
    "mother ": 3290,
    " move ": 3291,
    "body's ": 3292,
    "dares ": 3293,
    "lady's ": 3294,
    "a good ": 3295,
    " fool": 3296,
    "dew": 3297,
    "y\nThe ": 3298,
    "mar": 3299,
    " self": 3300,
    "RUTLAND": 3301,
    "Claudi": 3302,
    " thee ": 3303,
    "wife ": 3304,
    "ay": 3305,
    "ties ": 3306,
    "ident": 3307,
    "HENRY VI": 3308,
    "ways ": 3309,
    " show": 3310,
    "ity": 3311,
    " house ": 3312,
    " des": 3313,
    "lift ": 3314,
    " my ": 3315,
    "as they ": 3316,
    "soundly": 3317,
    "griev": 3318,
    " many ": 3319,
    "the g": 3320,
    " doth ": 3321,
    "you can": 3322,
    "-t": 3323,
    "gates ": 3324,
    "fur": 3325,
    "brother, ": 3326,
    "iolan": 3327,
    "try ": 3328,
    ":\nNo, ": 3329,
    "s.\n\n": 3330,
    "from my ": 3331,
    "ement": 3332,
    "traitor": 3333,
    "truth": 3334,
    "worn": 3335,
    " tell ": 3336,
    "reap": 3337,
    " their c": 3338,
    " her": 3339,
    ";\nThou": 3340,
    ".\n\nSLY": 3341,
    "s\nFrom": 3342,
    " those ": 3343,
    "emp": 3344,
    "constant ": 3345,
    ": be ": 3346,
    "wilt thou ": 3347,
    "Plantagen": 3348,
    "te": 3349,
    "we may ": 3350,
    "enem": 3351,
    "JOHN OF GAUNT": 3352,
    "nurse": 3353,
    "dangerous ": 3354,
    ". My ": 3355,
    "ng": 3356,
    "lt ": 3357,
    "?\nIf": 3358,
    "know your": 3359,
    "et, ": 3360,
    "thank you": 3361,
    "and\nThe ": 3362,
    "if they ": 3363,
    "Perdita": 3364,
    " that which": 3365,
    "loss of": 3366,
    ",\nUn": 3367,
    "won": 3368,
    "shrew": 3369,
    "clear": 3370,
    "raw": 3371,
    "WARW": 3372,
    " sham": 3373,
    "ge to ": 3374,
    "rub": 3375,
    ";\nIn": 3376,
    "'d for": 3377,
    "your ": 3378,
    ",\nOn": 3379,
    "If ": 3380,
    "ANNE:\n": 3381,
    "so ": 3382,
    "if we ": 3383,
    " well ": 3384,
    "Rome ": 3385,
    "sore ": 3386,
    "Bolingbroke ": 3387,
    "timely ": 3388,
    "ETER": 3389,
    "e the ": 3390,
    "Young ": 3391,
    "omin": 3392,
    "s,\n": 3393,
    "?\nHow": 3394,
    "benef": 3395,
    "IC": 3396,
    "day": 3397,
    "ROMEO:\n": 3398,
    "love.\n\n": 3399,
    "resign": 3400,
    " stra": 3401,
    "Turn": 3402,
    "one that ": 3403,
    "poss": 3404,
    "Or ": 3405,
    " might": 3406,
    "ISH": 3407,
    "s\nOf": 3408,
    "help to ": 3409,
    "sin": 3410,
    "With": 3411,
    "you must": 3412,
    "for our ": 3413,
    "ion": 3414,
    "ling ": 3415,
    "roar": 3416,
    " break": 3417,
    ".\nGo ": 3418,
    "ecial": 3419,
    "ed, and ": 3420,
    "chast": 3421,
    "s to ": 3422,
    "alter": 3423,
    "strik": 3424,
    ":\nV": 3425,
    "Citizens:\n": 3426,
    ".\nIn": 3427,
    "es;": 3428,
    "love thee ": 3429,
    "EDWARD": 3430,
    "any man": 3431,
    "'T": 3432,
    " from ": 3433,
    "? speak": 3434,
    "twenty ": 3435,
    "word '": 3436,
    "air of": 3437,
    "intellig": 3438,
    "ither ": 3439,
    "sla": 3440,
    "ix": 3441,
    "my heart": 3442,
    "abl": 3443,
    "lau": 3444,
    "one ": 3445,
    "yster": 3446,
    "DERBY": 3447,
    ":\n\n": 3448,
    "Clar": 3449,
    "it up": 3450,
    "dinner": 3451,
    "tum": 3452,
    "either": 3453,
    "serv": 3454,
    "RO": 3455,
    "I, that ": 3456,
    "hour": 3457,
    "\nA ": 3458,
    "THOMAS M": 3459,
    "arwick": 3460,
    "\nIn": 3461,
    "of th": 3462,
    ".\n\nHERMIONE:\n": 3463,
    ":\nGo ": 3464,
    " steel": 3465,
    "aste ": 3466,
    "out ": 3467,
    "me! ": 3468,
    "nobili": 3469,
    "?\n\nAUFIDIUS:\n": 3470,
    "Where is the ": 3471,
    "!\nA": 3472,
    "choose": 3473,
    "foo": 3474,
    "contin": 3475,
    "e.\n\nP": 3476,
    "be, ": 3477,
    "straight": 3478,
    "very ": 3479,
    "he hath ": 3480,
    "I can ": 3481,
    "ill you": 3482,
    " succ": 3483,
    "Merc": 3484,
    ",\nSt": 3485,
    "died": 3486,
    "the sea": 3487,
    "tri": 3488,
    "to\n": 3489,
    "king, ": 3490,
    "or the ": 3491,
    "s:\n": 3492,
    "ates": 3493,
    "tast": 3494,
    ";\nM": 3495,
    "The": 3496,
    "EL": 3497,
    " heavy ": 3498,
    "gle": 3499,
    ";\nA": 3500,
    "your hand": 3501,
    "chid": 3502,
    "mill": 3503,
    "lord, ": 3504,
    "hat ": 3505,
    "apt": 3506,
    "\nMade ": 3507,
    "JULIET:\n": 3508,
    "ense ": 3509,
    "Fear": 3510,
    "?\nOr": 3511,
    "fanc": 3512,
    "have you": 3513,
    "ston": 3514,
    "sland": 3515,
    "see this ": 3516,
    "satisfied": 3517,
    "smother": 3518,
    "have we ": 3519,
    "ester": 3520,
    "rash": 3521,
    "make him": 3522,
    "worse ": 3523,
    "nam": 3524,
    ":\nAway, ": 3525,
    ", the ": 3526,
    "these ": 3527,
    ", I'll ": 3528,
    "I shall": 3529,
    ".\n\nMARIANA": 3530,
    " his ": 3531,
    " been ": 3532,
    "Yea, ": 3533,
    ";\nWith": 3534,
    "least": 3535,
    "horses": 3536,
    " tongu": 3537,
    "-born": 3538,
    "conjure ": 3539,
    "storm": 3540,
    "to make ": 3541,
    "vi": 3542,
    "s:\nO, ": 3543,
    "INIUS:\n": 3544,
    "captain": 3545,
    "chair": 3546,
    "we must ": 3547,
    "on, ": 3548,
    ";\nAnd that ": 3549,
    ":\nI do ": 3550,
    "gentle ": 3551,
    " back": 3552,
    "boy": 3553,
    " blood ": 3554,
    "ve": 3555,
    "Bohem": 3556,
    "BRAKEN": 3557,
    "dish": 3558,
    " with her": 3559,
    " wash": 3560,
    "'st thou, ": 3561,
    "super": 3562,
    "second ": 3563,
    " any ": 3564,
    "express ": 3565,
    " '": 3566,
    "rong": 3567,
    "uty ": 3568,
    "I to ": 3569,
    ".\n\nEDWARD": 3570,
    "ong": 3571,
    "when ": 3572,
    "VALERIA:\n": 3573,
    "king!\n": 3574,
    "ers, ": 3575,
    "'s ": 3576,
    "am ": 3577,
    "r'd ": 3578,
    ":\nHe ": 3579,
    " far": 3580,
    "Claudio, ": 3581,
    "wick": 3582,
    "neither ": 3583,
    " with": 3584,
    " bed": 3585,
    "pass'd ": 3586,
    "arriv": 3587,
    "must not ": 3588,
    "quarrel ": 3589,
    "drag": 3590,
    "tro": 3591,
    "fresh": 3592,
    "comes": 3593,
    "ound ": 3594,
    "Being ": 3595,
    " marry, ": 3596,
    "atience ": 3597,
    "e\nThan": 3598,
    "I knew": 3599,
    "s in": 3600,
    "fourteen": 3601,
    "if I": 3602,
    ":\nWhere is ": 3603,
    " ca": 3604,
    "war": 3605,
    "ield ": 3606,
    "like a d": 3607,
    "ide ": 3608,
    "e\nAnd ": 3609,
    "teen": 3610,
    "all this ": 3611,
    "stretch": 3612,
    "vio": 3613,
    "urse ": 3614,
    "lies\n": 3615,
    "'d with the ": 3616,
    "eat": 3617,
    "I were ": 3618,
    "eous ": 3619,
    " sid": 3620,
    "dissembl": 3621,
    "I will make ": 3622,
    ".\n\nBISHOP OF ": 3623,
    "noise": 3624,
    " him, ": 3625,
    ":\nAs ": 3626,
    "me not": 3627,
    "'pardon": 3628,
    "on earth": 3629,
    " pla": 3630,
    "THOM": 3631,
    "ince, ": 3632,
    "have not ": 3633,
    " am": 3634,
    "mine honour": 3635,
    "KING ": 3636,
    "hence": 3637,
    "cho": 3638,
    "now, ": 3639,
    "day ": 3640,
    "th ": 3641,
    "friends": 3642,
    ".\n\nMERCUTIO:\n": 3643,
    " grief": 3644,
    "ant ": 3645,
    "issu": 3646,
    ":\nAre you": 3647,
    "BR": 3648,
    "ed in the ": 3649,
    "ondem": 3650,
    "wixt ": 3651,
    ".\n\nGR": 3652,
    "frown": 3653,
    ".\n\nCLIFFORD": 3654,
    "eep": 3655,
    "too, ": 3656,
    "first ": 3657,
    "I war": 3658,
    "heaven": 3659,
    "teach": 3660,
    "calm": 3661,
    "tak": 3662,
    "that I may ": 3663,
    "stay ": 3664,
    "vic": 3665,
    "rt ": 3666,
    "e'll ": 3667,
    "Ravenspurgh": 3668,
    "old": 3669,
    "faint": 3670,
    "happ": 3671,
    "mut": 3672,
    "s must ": 3673,
    "guard": 3674,
    "bold ": 3675,
    "error": 3676,
    "resolution": 3677,
    "ting": 3678,
    "tear": 3679,
    " would ": 3680,
    "! how": 3681,
    " house": 3682,
    "was the ": 3683,
    "s, but ": 3684,
    "fit to ": 3685,
    "ction": 3686,
    "have it so": 3687,
    "!\n\nCLIFFORD": 3688,
    " six": 3689,
    " author": 3690,
    "amaz": 3691,
    "that will ": 3692,
    "warlike ": 3693,
    "Peter": 3694,
    "eshrew": 3695,
    ":\nYet ": 3696,
    "erefore, ": 3697,
    "caught ": 3698,
    "was my ": 3699,
    "earn": 3700,
    "plant": 3701,
    "ut": 3702,
    "thousand ": 3703,
    "from your": 3704,
    "ness of my ": 3705,
    "he did ": 3706,
    "sover": 3707,
    "things, ": 3708,
    "ALTHAS": 3709,
    "VIRGILIA": 3710,
    "ertain": 3711,
    "cup": 3712,
    "balm": 3713,
    "receive ": 3714,
    "plea": 3715,
    "me,\n": 3716,
    "face ": 3717,
    " cra": 3718,
    ".\n\nLADY ": 3719,
    "Tower": 3720,
    "possible": 3721,
    ":\nThe": 3722,
    "attemp": 3723,
    "a": 3724,
    "lost ": 3725,
    " storm": 3726,
    "die, ": 3727,
    " your own": 3728,
    "VALER": 3729,
    "have no ": 3730,
    ":\nNo ": 3731,
    "gentlemen, ": 3732,
    "ical": 3733,
    "LAUD": 3734,
    "Men": 3735,
    "liver": 3736,
    "deposed": 3737,
    "\nA": 3738,
    "over": 3739,
    " woman": 3740,
    "pen": 3741,
    " min": 3742,
    "make ": 3743,
    "'d\nWith": 3744,
    "Youn": 3745,
    "j": 3746,
    ".\n\nCitizen": 3747,
    "opposit": 3748,
    "USH": 3749,
    "from ": 3750,
    " for ": 3751,
    "us all": 3752,
    "bawd": 3753,
    "although": 3754,
    "I'll not ": 3755,
    "not:": 3756,
    "Come, ": 3757,
    "ier": 3758,
    "ness, ": 3759,
    "look'd ": 3760,
    ". B": 3761,
    "grave ": 3762,
    "subst": 3763,
    "answer ": 3764,
    "nak": 3765,
    "ladi": 3766,
    "lor": 3767,
    "Ange": 3768,
    "RICH": 3769,
    ",\nMy ": 3770,
    "Re": 3771,
    "honourable ": 3772,
    "its ": 3773,
    "s!\n\n": 3774,
    "!\n\nSICINIUS:\n": 3775,
    "vol": 3776,
    "princes": 3777,
    "el": 3778,
    "took": 3779,
    ";\nThe ": 3780,
    "enter": 3781,
    "ival": 3782,
    "O'er": 3783,
    "Could ": 3784,
    "ese ": 3785,
    "prou": 3786,
    "you": 3787,
    "asleep": 3788,
    "tongu": 3789,
    "La": 3790,
    "city ": 3791,
    "anger": 3792,
    "For ": 3793,
    " strange ": 3794,
    "to-day": 3795,
    "ease": 3796,
    "EDW": 3797,
    "s, ": 3798,
    "me: ": 3799,
    "ety ": 3800,
    "respected ": 3801,
    " still": 3802,
    " country": 3803,
    "; ": 3804,
    "no; ": 3805,
    "Off": 3806,
    "knows ": 3807,
    "else ": 3808,
    "eter": 3809,
    "vice ": 3810,
    "e:": 3811,
    "s't ": 3812,
    "More than": 3813,
    "oward": 3814,
    " this be ": 3815,
    "ess ": 3816,
    "out, ": 3817,
    "safe ": 3818,
    "Mowbray's ": 3819,
    " will be ": 3820,
    "to ": 3821,
    "extrem": 3822,
    " part ": 3823,
    " in their": 3824,
    "merc": 3825,
    "cry ": 3826,
    "; which": 3827,
    ":\nTo-morrow": 3828,
    "like a c": 3829,
    "We are ": 3830,
    ".\n\nProvost": 3831,
    ":\nT": 3832,
    " when": 3833,
    "Christian": 3834,
    "cal": 3835,
    ", some ": 3836,
    "a pr": 3837,
    "we have ": 3838,
    "E:\n": 3839,
    "? What ": 3840,
    "give him": 3841,
    "promised ": 3842,
    "ation, ": 3843,
    "trick": 3844,
    "Padua": 3845,
    ". O, ": 3846,
    "mid": 3847,
    "Lucent": 3848,
    "to-": 3849,
    "Earl": 3850,
    "Juli": 3851,
    "common": 3852,
    "thunder": 3853,
    "ro": 3854,
    " yourself": 3855,
    "greet": 3856,
    "ge of ": 3857,
    "AULIN": 3858,
    "Corio": 3859,
    "ABH": 3860,
    "'d up": 3861,
    " ha": 3862,
    " better": 3863,
    "partly ": 3864,
    "he is ": 3865,
    "mil": 3866,
    "ENES:\n": 3867,
    ",\nThis ": 3868,
    "our good ": 3869,
    "ing up": 3870,
    "le": 3871,
    " that": 3872,
    "leave ": 3873,
    "e\n": 3874,
    "reat": 3875,
    "akes ": 3876,
    "e!\n\n": 3877,
    "hoar": 3878,
    "thick": 3879,
    "kill ": 3880,
    "he were ": 3881,
    "trem": 3882,
    "by": 3883,
    "gladly ": 3884,
    "IR STEPHEN": 3885,
    "?\n": 3886,
    "who ": 3887,
    "ween": 3888,
    "yond ": 3889,
    "\nLike ": 3890,
    "ker": 3891,
    "ity and ": 3892,
    "gods\n": 3893,
    " poss": 3894,
    " thousand ": 3895,
    ".\n\nPERDITA": 3896,
    "good ": 3897,
    "'d you": 3898,
    "vell": 3899,
    "accord": 3900,
    "estim": 3901,
    "fall ": 3902,
    "Hath ": 3903,
    "Come, come, ": 3904,
    "ice ": 3905,
    "for her": 3906,
    " pray": 3907,
    ": I ": 3908,
    "What": 3909,
    " banish": 3910,
    "s,\nFor": 3911,
    "hand that ": 3912,
    ".\n\nLADY GREY": 3913,
    "as it ": 3914,
    "eet": 3915,
    "knight": 3916,
    "well me": 3917,
    "do ": 3918,
    "we will": 3919,
    "\nThy ": 3920,
    "to the crown": 3921,
    "me, ": 3922,
    " I, ": 3923,
    "au": 3924,
    "yourself": 3925,
    "own": 3926,
    " stat": 3927,
    "mean to ": 3928,
    " prince": 3929,
    "towards ": 3930,
    "ess": 3931,
    "wa": 3932,
    "look upon": 3933,
    "s ere ": 3934,
    "plague ": 3935,
    "qui": 3936,
    "before ": 3937,
    "rage": 3938,
    " without ": 3939,
    "god": 3940,
    "confess": 3941,
    "ETRUCHIO:\n": 3942,
    "J": 3943,
    ",\nE": 3944,
    "defence": 3945,
    "proach": 3946,
    " of such": 3947,
    ",\nEven ": 3948,
    " thine ": 3949,
    "escap": 3950,
    ":--": 3951,
    "rud": 3952,
    ";\nWhich": 3953,
    "Say ": 3954,
    "rein": 3955,
    "were ": 3956,
    ";\nYour": 3957,
    "between ": 3958,
    "ose": 3959,
    "thy hand": 3960,
    " su": 3961,
    ":\nSay, ": 3962,
    "ship": 3963,
    "triumph": 3964,
    "Whose ": 3965,
    " could ": 3966,
    "prithee, ": 3967,
    "UCKING": 3968,
    "claim": 3969,
    "\nOur": 3970,
    "\nC": 3971,
    "found ": 3972,
    "fa": 3973,
    "stat": 3974,
    "advantage ": 3975,
    "infect ": 3976,
    "Julie": 3977,
    "s again": 3978,
    "HENRY B": 3979,
    "count ": 3980,
    "Brother": 3981,
    "omen ": 3982,
    "such": 3983,
    "and, and ": 3984,
    "ea": 3985,
    " beggar": 3986,
    "enemies ": 3987,
    "beam": 3988,
    "but my ": 3989,
    "exper": 3990,
    "thy ": 3991,
    "tribun": 3992,
    ":\n'": 3993,
    "boot": 3994,
    "QUEEN": 3995,
    "ANTI": 3996,
    "e! ": 3997,
    " be\n": 3998,
    "strike ": 3999,
    "suffici": 4000,
    ".\nO ": 4001,
    "fli": 4002,
    "v": 4003,
    " present ": 4004,
    "hap": 4005,
    ": I have ": 4006,
    "dead ": 4007,
    "ited ": 4008,
    "OX": 4009,
    "e.\n\nBRUTUS:\n": 4010,
    " show ": 4011,
    "king,\nAnd ": 4012,
    "lig": 4013,
    ".\n\nFRIAR ": 4014,
    "pla": 4015,
    " fur": 4016,
    "er, ": 4017,
    "I say, ": 4018,
    "rever": 4019,
    " har": 4020,
    " far off": 4021,
    "another ": 4022,
    "Bapt": 4023,
    "the king": 4024,
    "to me, ": 4025,
    "die ": 4026,
    "s so ": 4027,
    "since": 4028,
    "got ": 4029,
    "forget ": 4030,
    "dig": 4031,
    "cure ": 4032,
    "e\nWith": 4033,
    "one thing": 4034,
    "advice": 4035,
    "thorn": 4036,
    "me to my ": 4037,
    "manif": 4038,
    ",\nWhere ": 4039,
    "Cap": 4040,
    "ed the ": 4041,
    "course ": 4042,
    "sum": 4043,
    "nature, ": 4044,
    "unt": 4045,
    "Should ": 4046,
    "rack": 4047,
    "resh": 4048,
    "ole ": 4049,
    "forty ": 4050,
    "se": 4051,
    " bla": 4052,
    "lamentation": 4053,
    "life,\n": 4054,
    "scen": 4055,
    "til": 4056,
    "you m": 4057,
    "!\nD": 4058,
    "and his ": 4059,
    "win": 4060,
    "ORIOLAN": 4061,
    "iment ": 4062,
    "?\n\nMENENIUS:\n": 4063,
    "civil": 4064,
    "touch": 4065,
    "for our": 4066,
    "door": 4067,
    "of you": 4068,
    "s'": 4069,
    ", and the ": 4070,
    "s do ": 4071,
    "indeed": 4072,
    "done": 4073,
    " a d": 4074,
    "Lest ": 4075,
    "grievous ": 4076,
    "wondr": 4077,
    " he were ": 4078,
    " blood\n": 4079,
    " high": 4080,
    " abhor": 4081,
    " us ": 4082,
    "ast": 4083,
    "field": 4084,
    "estroy": 4085,
    "How now, ": 4086,
    "ONTAG": 4087,
    "ed\nBy ": 4088,
    "anon": 4089,
    "possess": 4090,
    "looks ": 4091,
    "point": 4092,
    "wash": 4093,
    "end, ": 4094,
    "for some ": 4095,
    " he was ": 4096,
    " be, ": 4097,
    "ollow": 4098,
    "how he ": 4099,
    "Ab": 4100,
    "ON": 4101,
    " his\n": 4102,
    "ond ": 4103,
    "physician": 4104,
    "post": 4105,
    "im": 4106,
    "retir": 4107,
    "poor ": 4108,
    "neigh": 4109,
    "read": 4110,
    "England ": 4111,
    "he must ": 4112,
    "but ": 4113,
    ".\n\nBENVOLIO:\n": 4114,
    "atter ": 4115,
    "did": 4116,
    "; for": 4117,
    "t\nA": 4118,
    "unf": 4119,
    "me the ": 4120,
    ".\n\nFirst ": 4121,
    "ursed ": 4122,
    ".\n\nISABELLA": 4123,
    "rop": 4124,
    " dread": 4125,
    "right": 4126,
    "though I ": 4127,
    "daily ": 4128,
    "We do ": 4129,
    "friend": 4130,
    "cap": 4131,
    " they are ": 4132,
    "husband ": 4133,
    ". Come, ": 4134,
    ":\nY": 4135,
    " mild": 4136,
    "a\n": 4137,
    "thought ": 4138,
    "rief": 4139,
    "RIC": 4140,
    "pothe": 4141,
    "scorn": 4142,
    "in-": 4143,
    "runk": 4144,
    "pos": 4145,
    "bleed": 4146,
    "of them": 4147,
    ".\nA": 4148,
    "Lu": 4149,
    ":\nWe are ": 4150,
    "vir": 4151,
    "come in": 4152,
    "made\n": 4153,
    "his son": 4154,
    " power ": 4155,
    " to death": 4156,
    "Either ": 4157,
    "seem": 4158,
    "a noble ": 4159,
    "mor": 4160,
    "mourn": 4161,
    "Bar": 4162,
    ":\nShall ": 4163,
    "use": 4164,
    "you, ": 4165,
    "-morrow": 4166,
    ": as ": 4167,
    "thou li": 4168,
    "able to ": 4169,
    "broke ": 4170,
    "greed": 4171,
    " worl": 4172,
    "Stand": 4173,
    "s up": 4174,
    " sudden": 4175,
    "times, ": 4176,
    "grant ": 4177,
    "ing and ": 4178,
    "in heaven": 4179,
    "with thy ": 4180,
    "force ": 4181,
    " dream": 4182,
    ":\nIf": 4183,
    " man ": 4184,
    " take ": 4185,
    "Ah, ": 4186,
    "aughter": 4187,
    ",\nI have ": 4188,
    "ef": 4189,
    "my father": 4190,
    "standing ": 4191,
    "est\n": 4192,
    " of ": 4193,
    "you go ": 4194,
    "madam": 4195,
    "Capitol": 4196,
    "Stanle": 4197,
    "ed in ": 4198,
    "I should ": 4199,
    " strong": 4200,
    "Claudio ": 4201,
    ".\n\nP": 4202,
    "conce": 4203,
    "could not ": 4204,
    " wo": 4205,
    "?\n\nELBOW": 4206,
    ":\nFaith": 4207,
    "then the ": 4208,
    "umb": 4209,
    "heaven ": 4210,
    "With ": 4211,
    ": w": 4212,
    "office, ": 4213,
    "pothecar": 4214,
    ".\nAnd ": 4215,
    "ust ": 4216,
    ":\nIt ": 4217,
    "usic": 4218,
    "Up": 4219,
    "as many ": 4220,
    " mother ": 4221,
    "dau": 4222,
    "perf": 4223,
    "!\n\nBUCKINGHAM": 4224,
    "IR STEPHEN SCRO": 4225,
    "st thou ": 4226,
    ": O, ": 4227,
    "EEN": 4228,
    "look to ": 4229,
    "Volscian": 4230,
    "for this": 4231,
    "ied ": 4232,
    "glas": 4233,
    " cl": 4234,
    ":\nLord ": 4235,
    "Which": 4236,
    "are ": 4237,
    " of that ": 4238,
    "becomes ": 4239,
    "WIL": 4240,
    "dispatch": 4241,
    ":\nAlas, ": 4242,
    "deep": 4243,
    "I hope ": 4244,
    "RIVER": 4245,
    " follow": 4246,
    "ve,\n": 4247,
    ",\nEven": 4248,
    " serv": 4249,
    "Master": 4250,
    " husb": 4251,
    "ession": 4252,
    " hither ": 4253,
    "presently ": 4254,
    "sight ": 4255,
    "apparel": 4256,
    ". Th": 4257,
    "a p": 4258,
    "We have ": 4259,
    "bl": 4260,
    "epher": 4261,
    "petty ": 4262,
    "boun": 4263,
    "loath": 4264,
    "irth": 4265,
    "tir": 4266,
    "lay ": 4267,
    " spir": 4268,
    "you would ": 4269,
    "our hand": 4270,
    "we'll": 4271,
    "sorrows ": 4272,
    "are, ": 4273,
    "one\n": 4274,
    "wealth": 4275,
    "it should ": 4276,
    "; therefore ": 4277,
    "by,\n": 4278,
    "Caius Marcius": 4279,
    " wrong": 4280,
    ",\nAnd made ": 4281,
    "Thy ": 4282,
    "'t": 4283,
    "ack": 4284,
    "life.\n": 4285,
    "knowled": 4286,
    "sured ": 4287,
    ",\nBut ": 4288,
    ".\n\nMessenger": 4289,
    " promised ": 4290,
    "LARTIUS:\n": 4291,
    "thou art ": 4292,
    "Can": 4293,
    "for": 4294,
    "strange": 4295,
    "earl": 4296,
    "es '": 4297,
    "ver ": 4298,
    "you both": 4299,
    "occ": 4300,
    "Romeo": 4301,
    "excellent": 4302,
    "with her": 4303,
    "thou liest": 4304,
    "ome": 4305,
    "on thy ": 4306,
    "Now, ": 4307,
    " befor": 4308,
    "you s": 4309,
    " of them": 4310,
    "some ": 4311,
    "as": 4312,
    "AGO": 4313,
    "our d": 4314,
    "boo": 4315,
    "out of ": 4316,
    "Tyrrel": 4317,
    " my good ": 4318,
    "prince ": 4319,
    "s that are ": 4320,
    "other's ": 4321,
    "Po": 4322,
    " what ": 4323,
    "I pray you": 4324,
    "comfor": 4325,
    " traitor": 4326,
    "Romeo is ": 4327,
    "Berkele": 4328,
    "on the earth": 4329,
    " cast ": 4330,
    "table": 4331,
    "!\n\nP": 4332,
    "rent ": 4333,
    "Escal": 4334,
    "main": 4335,
    "he be ": 4336,
    "alone": 4337,
    "through the ": 4338,
    "atis": 4339,
    "ha": 4340,
    " like ": 4341,
    "single ": 4342,
    "e!\n": 4343,
    "ves": 4344,
    "\nWhat ": 4345,
    "present": 4346,
    "?\n\nSecond ": 4347,
    " say ": 4348,
    "disper": 4349,
    "cle, ": 4350,
    ":\nThanks, ": 4351,
    " mine honour": 4352,
    "have I ": 4353,
    ".\nD": 4354,
    ".\n\nLORD WILLOUGHBY": 4355,
    "heart\n": 4356,
    "walk": 4357,
    "hath been": 4358,
    "busin": 4359,
    ":\nMy Lord of ": 4360,
    "voic": 4361,
    "false ": 4362,
    "Dor": 4363,
    "would\n": 4364,
    "dden ": 4365,
    "in't": 4366,
    "govern": 4367,
    ":\nBut, ": 4368,
    "hall": 4369,
    "s\nS": 4370,
    "din": 4371,
    " title ": 4372,
    " she be ": 4373,
    "Lord": 4374,
    "ow": 4375,
    "age": 4376,
    "that": 4377,
    "fter the ": 4378,
    "ed\n": 4379,
    "sad": 4380,
    ":\nI would ": 4381,
    ";\nTo ": 4382,
    "Lord Hasting": 4383,
    "ron": 4384,
    "Tull": 4385,
    "fu": 4386,
    "gentleman": 4387,
    "the blood ": 4388,
    ", with": 4389,
    "Laurence": 4390,
    "untsman": 4391,
    "care ": 4392,
    "My ": 4393,
    "pati": 4394,
    "ISTRESS OVERDONE:\n": 4395,
    "clouds ": 4396,
    " woo": 4397,
    ";'": 4398,
    "t\n": 4399,
    "unt, ": 4400,
    " he did ": 4401,
    "ultitud": 4402,
    "OMPEY": 4403,
    " then, ": 4404,
    " their ": 4405,
    "e and ": 4406,
    "ERC": 4407,
    " affair": 4408,
    "d\n": 4409,
    "irst ": 4410,
    "him to ": 4411,
    " must ": 4412,
    "Coun": 4413,
    "I dream": 4414,
    "mad": 4415,
    "rapi": 4416,
    ",\nAnd so ": 4417,
    "omen": 4418,
    "of a": 4419,
    "buck": 4420,
    " touch": 4421,
    "till now": 4422,
    "with her ": 4423,
    "ach": 4424,
    "ush": 4425,
    "!' '": 4426,
    "life": 4427,
    "mov": 4428,
    "y's ": 4429,
    "few": 4430,
    " tent": 4431,
    "Before ": 4432,
    ":\nGo, ": 4433,
    "enm": 4434,
    "dagg": 4435,
    ". Farewell": 4436,
    "ather": 4437,
    "not be ": 4438,
    " grace": 4439,
    "\nTake ": 4440,
    "to put ": 4441,
    "cannot ": 4442,
    "s for": 4443,
    " after ": 4444,
    "up my ": 4445,
    " wast ": 4446,
    "dign": 4447,
    "of these ": 4448,
    "ing st": 4449,
    "fawn": 4450,
    "test": 4451,
    "pur": 4452,
    " fear": 4453,
    "age\n": 4454,
    "\nUn": 4455,
    "repeal": 4456,
    ":\nHere's ": 4457,
    "exc": 4458,
    "knowledge ": 4459,
    "ise ": 4460,
    "king,\n": 4461,
    "you say": 4462,
    "trust": 4463,
    "pay ": 4464,
    " heaven": 4465,
    "I ": 4466,
    "avo": 4467,
    " on ": 4468,
    "my lord": 4469,
    "bed, ": 4470,
    " with me ": 4471,
    "Some ": 4472,
    "wild": 4473,
    ".\n\nDUKE ": 4474,
    " word ": 4475,
    " thought": 4476,
    "sec": 4477,
    "earnest": 4478,
    "ARNARDIN": 4479,
    "use and ": 4480,
    ": I": 4481,
    "'fore ": 4482,
    "watch": 4483,
    "EORG": 4484,
    " sec": 4485,
    "Watch": 4486,
    "s before ": 4487,
    "ous": 4488,
    "sp": 4489,
    "tell ": 4490,
    "worse than": 4491,
    "tell us ": 4492,
    ".\n\nVolsce": 4493,
    "of heaven": 4494,
    "rejoice ": 4495,
    " shall have ": 4496,
    "y? ": 4497,
    " am I ": 4498,
    "odd": 4499,
    "dain": 4500,
    "ts ": 4501,
    ",\nAn": 4502,
    "holy ": 4503,
    " your": 4504,
    "rest ": 4505,
    "let them": 4506,
    "hither": 4507,
    "like ": 4508,
    "; I will ": 4509,
    "though I": 4510,
    "FL": 4511,
    " beaut": 4512,
    "insin": 4513,
    "squ": 4514,
    "EGOR": 4515,
    "I h": 4516,
    " three ": 4517,
    "'d at ": 4518,
    ": there ": 4519,
    ";\nI'll ": 4520,
    "endure ": 4521,
    "s of your": 4522,
    "ARNARDINE:\n": 4523,
    "to thee": 4524,
    "'tis no ": 4525,
    " tribun": 4526,
    "bring ": 4527,
    ": but ": 4528,
    "ignorant ": 4529,
    ",\nNot ": 4530,
    "angu": 4531,
    "atience": 4532,
    "less ": 4533,
    "ment ": 4534,
    "sman": 4535,
    "lace ": 4536,
    "?\n\nHASTINGS:\n": 4537,
    " but ": 4538,
    ", not ": 4539,
    "hear me speak": 4540,
    "portion": 4541,
    "rott": 4542,
    "so, ": 4543,
    "you b": 4544,
    "press": 4545,
    "sav": 4546,
    ":\nAnd ": 4547,
    "George": 4548,
    " themselves ": 4549,
    ".\n\nLord ": 4550,
    "shire ": 4551,
    "pite ": 4552,
    "nicious ": 4553,
    "lies": 4554,
    "nothing but ": 4555,
    " call": 4556,
    "ESS ": 4557,
    "block": 4558,
    "crack": 4559,
    "her ": 4560,
    "valour": 4561,
    "privile": 4562,
    "aint": 4563,
    "bless": 4564,
    "morning ": 4565,
    "Ha": 4566,
    "sepulch": 4567,
    "Like ": 4568,
    "!\n\nPAULINA": 4569,
    "peop": 4570,
    ". C": 4571,
    "you say ": 4572,
    "bite ": 4573,
    "ve-": 4574,
    "Edward, ": 4575,
    "Perd": 4576,
    "bound": 4577,
    "g ": 4578,
    "H": 4579,
    "easily ": 4580,
    " bloody ": 4581,
    "-sh": 4582,
    " worthy ": 4583,
    "Hermion": 4584,
    "proc": 4585,
    "vice": 4586,
    "you'll ": 4587,
    "bes": 4588,
    " bl": 4589,
    "enemy": 4590,
    " warrant ": 4591,
    "honest ": 4592,
    "offic": 4593,
    "ept": 4594,
    ": and ": 4595,
    "with me ": 4596,
    "subject": 4597,
    "knows not ": 4598,
    "sid": 4599,
    "shall": 4600,
    "glorious ": 4601,
    "at ": 4602,
    "will I ": 4603,
    "oler": 4604,
    "Tybalt ": 4605,
    "will not ": 4606,
    "ept ": 4607,
    "whole ": 4608,
    "cious ": 4609,
    "destroy": 4610,
    "e,\nAnd ": 4611,
    " stran": 4612,
    "O, ": 4613,
    "essenger": 4614,
    "hearing": 4615,
    ".\n\nAUTOLYCUS:\n": 4616,
    "me,\nAnd ": 4617,
    " whose ": 4618,
    " weal": 4619,
    "ie": 4620,
    "lad": 4621,
    "sel": 4622,
    "always ": 4623,
    "ling": 4624,
    "Was ": 4625,
    "your plea": 4626,
    "ENVOL": 4627,
    "lower": 4628,
    ",\nLet ": 4629,
    "likely ": 4630,
    "to me ": 4631,
    "tation": 4632,
    " thine own": 4633,
    "pit": 4634,
    "I do beseech": 4635,
    "host ": 4636,
    "if I ": 4637,
    "thus I ": 4638,
    "rough": 4639,
    "E ": 4640,
    "King Henry's ": 4641,
    " my son": 4642,
    "Caius ": 4643,
    "you now": 4644,
    "needful": 4645,
    ",\nM": 4646,
    "ram": 4647,
    "recomp": 4648,
    " true ": 4649,
    "O God": 4650,
    " such a ": 4651,
    "such a p": 4652,
    "linger": 4653,
    "\nWith": 4654,
    "QU": 4655,
    "lep": 4656,
    "world,\n": 4657,
    "free ": 4658,
    "a h": 4659,
    "read ": 4660,
    " off the ": 4661,
    "come.\n": 4662,
    "'tis ": 4663,
    "aught ": 4664,
    "thou s": 4665,
    "then ": 4666,
    "custom": 4667,
    " form": 4668,
    "ied": 4669,
    "e? ": 4670,
    "ly and ": 4671,
    " too": 4672,
    "set, ": 4673,
    "dark": 4674,
    "lie": 4675,
    "tain": 4676,
    "proud": 4677,
    "Hereford's ": 4678,
    "to our": 4679,
    "your man": 4680,
    "ve to ": 4681,
    " ad": 4682,
    "is this ": 4683,
    ":\nLet ": 4684,
    "s o' the ": 4685,
    ", his ": 4686,
    "\nBut ": 4687,
    " here, ": 4688,
    "HENRY PERC": 4689,
    "a fri": 4690,
    ",\nPro": 4691,
    "Richard": 4692,
    "fought": 4693,
    "lf": 4694,
    "ed, ": 4695,
    "dearest ": 4696,
    " murder": 4697,
    ": I am": 4698,
    "they say": 4699,
    "wonder": 4700,
    "so much": 4701,
    "erved ": 4702,
    ": yet ": 4703,
    "safe, ": 4704,
    " desir": 4705,
    ",\nBy ": 4706,
    "Lar": 4707,
    "golden": 4708,
    "fore ": 4709,
    "clou": 4710,
    "object ": 4711,
    " therefore ": 4712,
    "chief": 4713,
    "s were ": 4714,
    "anish": 4715,
    "forc": 4716,
    ": my ": 4717,
    "of m": 4718,
    "revenged ": 4719,
    "with him": 4720,
    ".\nIf": 4721,
    "\nFrom": 4722,
    "Pa": 4723,
    "beseech": 4724,
    "ing death": 4725,
    "'ll": 4726,
    "no ": 4727,
    "after": 4728,
    "es of ": 4729,
    "lord and ": 4730,
    "ie ": 4731,
    "isdom": 4732,
    "life ": 4733,
    "mon": 4734,
    ".\n\nThird Citizen": 4735,
    "le, ": 4736,
    "pair": 4737,
    "antag": 4738,
    "THOMAS MOWBRAY": 4739,
    "ASTING": 4740,
    ".\nS": 4741,
    ",\nIs ": 4742,
    " seem": 4743,
    "sent to ": 4744,
    "destin": 4745,
    "first": 4746,
    " say": 4747,
    " wind ": 4748,
    " honour ": 4749,
    "arms ": 4750,
    "I see, ": 4751,
    " sha": 4752,
    " cour": 4753,
    "ia": 4754,
    "pronoun": 4755,
    "ines ": 4756,
    "lock": 4757,
    "nic": 4758,
    ":\nI have ": 4759,
    "s.\nWhat ": 4760,
    "TRAN": 4761,
    "inqu": 4762,
    "thee, ": 4763,
    "dam": 4764,
    "state, ": 4765,
    "their": 4766,
    "ing to ": 4767,
    "Hen": 4768,
    ".\n\nLADY CAPULET:\n": 4769,
    "ener": 4770,
    "That's ": 4771,
    " he's ": 4772,
    "we": 4773,
    "increa": 4774,
    "app": 4775,
    "inst": 4776,
    "e're ": 4777,
    "ray": 4778,
    "van": 4779,
    " deserv": 4780,
    "fly": 4781,
    "EDWARD IV": 4782,
    " he be ": 4783,
    "faction": 4784,
    ". Hark": 4785,
    "brain": 4786,
    "frame ": 4787,
    ",\nAnd not ": 4788,
    "cely ": 4789,
    " f": 4790,
    "? If": 4791,
    "your lordship": 4792,
    "round ": 4793,
    "?--": 4794,
    " with thy ": 4795,
    "Are you": 4796,
    "VER": 4797,
    "thine own": 4798,
    "could ": 4799,
    "for a": 4800,
    "VOLUMNIA": 4801,
    "there is ": 4802,
    "'d, and ": 4803,
    "cover": 4804,
    "com": 4805,
    "indu": 4806,
    "that you have ": 4807,
    "s them": 4808,
    "lad ": 4809,
    "net ": 4810,
    "\nHis ": 4811,
    ",\nFor ": 4812,
    "event": 4813,
    "BUR": 4814,
    "you should ": 4815,
    "itor": 4816,
    " way ": 4817,
    "ORD ": 4818,
    "to you": 4819,
    "garland": 4820,
    " sleep": 4821,
    "ners ": 4822,
    "world ": 4823,
    "I see ": 4824,
    ",\nP": 4825,
    "There's ": 4826,
    "es\nOf": 4827,
    "ousin of ": 4828,
    "ity, ": 4829,
    "to save ": 4830,
    "ge\nOf": 4831,
    "jewel": 4832,
    "provost": 4833,
    "an a": 4834,
    "Against the ": 4835,
    ",\nSo ": 4836,
    "det": 4837,
    "gracious lord": 4838,
    "ution": 4839,
    " told ": 4840,
    "Earl of ": 4841,
    "pray": 4842,
    "?\n\nServant": 4843,
    "world": 4844,
    "city": 4845,
    "lot ": 4846,
    "?\nWho ": 4847,
    ";\nL": 4848,
    "rep": 4849,
    ";\nNor ": 4850,
    "either ": 4851,
    "I'll": 4852,
    "branch": 4853,
    "hath been ": 4854,
    ";\nAnd then ": 4855,
    ",\nNor": 4856,
    "WESTM": 4857,
    "ednes": 4858,
    "ved ": 4859,
    " the d": 4860,
    "Volsc": 4861,
    ".\n\nPAULINA:\n": 4862,
    "trial": 4863,
    "and thy ": 4864,
    "singular": 4865,
    ":\nMy lord, ": 4866,
    "ither": 4867,
    "ing it": 4868,
    "Ex": 4869,
    "?\n\nSecond Murderer": 4870,
    "sion": 4871,
    "cause to ": 4872,
    "ne": 4873,
    "lady ": 4874,
    " duty ": 4875,
    "take ": 4876,
    "wak": 4877,
    "estimation": 4878,
    " and to ": 4879,
    "for\n": 4880,
    ",\nIf you": 4881,
    "under ": 4882,
    " spur": 4883,
    "\nN": 4884,
    "give my ": 4885,
    "boy, ": 4886,
    "much ": 4887,
    "our": 4888,
    "queen and ": 4889,
    "Ra": 4890,
    "onder": 4891,
    "I'": 4892,
    "barr": 4893,
    "cher": 4894,
    ";": 4895,
    "gods ": 4896,
    "a wif": 4897,
    ",\nNow": 4898,
    "ure, ": 4899,
    "night ": 4900,
    "service ": 4901,
    "the grea": 4902,
    "long": 4903,
    "pray ": 4904,
    "ge, ": 4905,
    "bri": 4906,
    "thither": 4907,
    "as you": 4908,
    " all, ": 4909,
    "is to ": 4910,
    "call me ": 4911,
    ":\nNay, ": 4912,
    "we ": 4913,
    "amill": 4914,
    ":\nAd": 4915,
    "ongu": 4916,
    ",\nMay ": 4917,
    "an in": 4918,
    "advise": 4919,
    "ot ": 4920,
    "enc": 4921,
    "spoken": 4922,
    ",\nThe ": 4923,
    "TYBALT": 4924,
    ",\nYour": 4925,
    "And ": 4926,
    "gue ": 4927,
    "e.\n\nHENRY BOLINGBROKE:\n": 4928,
    "case": 4929,
    "ander": 4930,
    "even ": 4931,
    " tru": 4932,
    "kis": 4933,
    "all": 4934,
    " secret ": 4935,
    "Murderer": 4936,
    "empty ": 4937,
    "Duke of ": 4938,
    "chance": 4939,
    " swear": 4940,
    "OND": 4941,
    "RICHARD": 4942,
    "lead ": 4943,
    "freely ": 4944,
    " soon": 4945,
    "bear": 4946,
    " say, ": 4947,
    " our": 4948,
    "Wor": 4949,
    ".\n\nPRINCE:\n": 4950,
    "BENVOLIO:\n": 4951,
    "ge and ": 4952,
    ",\nH": 4953,
    "ing the ": 4954,
    "you hear": 4955,
    "rose": 4956,
    "\nAt ": 4957,
    "lose his ": 4958,
    "a traitor": 4959,
    "Death": 4960,
    "sir": 4961,
    "Nurse": 4962,
    "your husband": 4963,
    "es": 4964,
    "ENCE:\n": 4965,
    "deaf": 4966,
    "life and ": 4967,
    "for thy ": 4968,
    ".\n\nBRUTUS:\n": 4969,
    "shall\n": 4970,
    "joy": 4971,
    "but, ": 4972,
    "ree ": 4973,
    " he will": 4974,
    "Come ": 4975,
    "wife and ": 4976,
    " un": 4977,
    "ing it ": 4978,
    "! who ": 4979,
    "usin": 4980,
    "ted ": 4981,
    "Bianca": 4982,
    "ROME": 4983,
    ";\nW": 4984,
    ", let me ": 4985,
    "reverend ": 4986,
    "UL": 4987,
    "news, ": 4988,
    "ence to ": 4989,
    ":\nI b": 4990,
    "ERMIONE:\n": 4991,
    "race ": 4992,
    "ark": 4993,
    "rel": 4994,
    "WESTMORELAND": 4995,
    ",\nIn": 4996,
    " by his ": 4997,
    "Against ": 4998,
    "\nMy ": 4999,
    "writ": 5000,
    " sure ": 5001,
    "tra": 5002,
    "flesh": 5003,
    " out": 5004,
    "s shall ": 5005,
    "robber": 5006,
    "HENRY BOLINGBRO": 5007,
    "she\n": 5008,
    "embra": 5009,
    "Of ": 5010,
    "he shall": 5011,
    "Thurs": 5012,
    "\nThan ": 5013,
    "subjects ": 5014,
    "your w": 5015,
    "sake ": 5016,
    "affect": 5017,
    "OF AU": 5018,
    " down": 5019,
    "coff": 5020,
    "were the ": 5021,
    "Romeo ": 5022,
    "wife, ": 5023,
    "France": 5024,
    "let's go": 5025,
    " stru": 5026,
    "!\nHe ": 5027,
    "not the ": 5028,
    " be so ": 5029,
    ":\nShould ": 5030,
    "IT": 5031,
    "quite ": 5032,
    "our s": 5033,
    "rise": 5034,
    "PUL": 5035,
    "lamb": 5036,
    "inno": 5037,
    "oward ": 5038,
    " bur": 5039,
    "good my lord, ": 5040,
    "so": 5041,
    "Serving": 5042,
    " hum": 5043,
    "yield": 5044,
    "be gone": 5045,
    "let me see ": 5046,
    "vel": 5047,
    ".\n\nDORCAS:\n": 5048,
    "Say, ": 5049,
    "af": 5050,
    "lordship": 5051,
    " make ": 5052,
    "IR ST": 5053,
    ";\nOf": 5054,
    ",\nAnd that ": 5055,
    "My lord, ": 5056,
    "AEdile": 5057,
    "him ": 5058,
    "JOHN OF GAU": 5059,
    ".\n\nVALERIA": 5060,
    " sight": 5061,
    "s of my ": 5062,
    "brat": 5063,
    "woful": 5064,
    "s in ": 5065,
    "in m": 5066,
    "ceed ": 5067,
    " mon": 5068,
    " must be ": 5069,
    "perceiv": 5070,
    "AU": 5071,
    "Second ": 5072,
    ":\nHe is ": 5073,
    "e": 5074,
    "office ": 5075,
    "fellow ": 5076,
    "deeds ": 5077,
    "LUCENTIO:\n": 5078,
    "better ": 5079,
    "Tarpe": 5080,
    "according to ": 5081,
    "liev": 5082,
    "MAR": 5083,
    "y\nA": 5084,
    "a for": 5085,
    " does ": 5086,
    "your father": 5087,
    "TYBAL": 5088,
    "east": 5089,
    "call": 5090,
    "to do": 5091,
    "leaves ": 5092,
    ":\nHave ": 5093,
    "? ": 5094,
    ". Wh": 5095,
    "A little ": 5096,
    ".\nHow ": 5097,
    "be not ": 5098,
    "let me ": 5099,
    "our general": 5100,
    "ard, ": 5101,
    "such as ": 5102,
    "husband": 5103,
    "want ": 5104,
    "report ": 5105,
    "know the ": 5106,
    "OF AUMER": 5107,
    "by his ": 5108,
    "I am too ": 5109,
    "ely ": 5110,
    "more, ": 5111,
    "'Tis ": 5112,
    "answ": 5113,
    "patience": 5114,
    " marry ": 5115,
    "be thy ": 5116,
    "IDAM": 5117,
    "friend, ": 5118,
    "charit": 5119,
    "; it ": 5120,
    "sac": 5121,
    "es, that ": 5122,
    "dow": 5123,
    "Covent": 5124,
    "Villain": 5125,
    "dang": 5126,
    ",\nAnd all": 5127,
    "al": 5128,
    "lived ": 5129,
    "cheer": 5130,
    "!\nThy ": 5131,
    "roo": 5132,
    "t's ": 5133,
    "thereof": 5134,
    "tell the ": 5135,
    "shadow": 5136,
    "cru": 5137,
    "unjust": 5138,
    "that I ": 5139,
    " go ": 5140,
    "I swear": 5141,
    "rue ": 5142,
    "men, ": 5143,
    "d\nTo ": 5144,
    "condem": 5145,
    "?\nThe ": 5146,
    "rid": 5147,
    "servant": 5148,
    "speech": 5149,
    " within": 5150,
    ": do not ": 5151,
    "; wh": 5152,
    "Dis": 5153,
    ".\nHow now": 5154,
    " hath": 5155,
    "battle": 5156,
    "tin": 5157,
    "I prithee, ": 5158,
    " help": 5159,
    "press'd ": 5160,
    "like a ": 5161,
    "CATESBY": 5162,
    "Why, ": 5163,
    ": 'tis ": 5164,
    "tle ": 5165,
    "iles ": 5166,
    "o-morrow": 5167,
    ":\nLook": 5168,
    "no more ": 5169,
    "s you": 5170,
    "I know the ": 5171,
    "ound,\n": 5172,
    "NORF": 5173,
    ".\n\nDUCHESS OF YORK": 5174,
    "thou hast": 5175,
    "I tell": 5176,
    "Titus Larti": 5177,
    "no\n": 5178,
    "pleasure": 5179,
    " beat ": 5180,
    "the good ": 5181,
    "lick": 5182,
    "econd ": 5183,
    " sw": 5184,
    "vantage ": 5185,
    "cause ": 5186,
    "ness\n": 5187,
    "thou": 5188,
    "better": 5189,
    "hard": 5190,
    "A P": 5191,
    "thrive ": 5192,
    "est, ": 5193,
    "LADY GREY": 5194,
    "art\n": 5195,
    "Commend ": 5196,
    "? what ": 5197,
    "goo": 5198,
    "tock": 5199,
    "how ": 5200,
    "ber": 5201,
    "back again": 5202,
    "!\n\nANGELO:\n": 5203,
    ".\n\nNORTHUMBERLAND": 5204,
    "eal": 5205,
    ";\nOr": 5206,
    "demand": 5207,
    "adam, ": 5208,
    " straight": 5209,
    "field ": 5210,
    "UCKINGHAM": 5211,
    "gr": 5212,
    ",' quoth": 5213,
    "blood,\n": 5214,
    "long to ": 5215,
    "death's ": 5216,
    "with s": 5217,
    "und": 5218,
    "abo": 5219,
    ":\nO": 5220,
    "the st": 5221,
    "uck": 5222,
    "sworn": 5223,
    "art thou ": 5224,
    ", as ": 5225,
    "to see ": 5226,
    " blow": 5227,
    "them ": 5228,
    "et ": 5229,
    "HENRY ": 5230,
    " wind": 5231,
    "ister": 5232,
    " stor": 5233,
    " a do": 5234,
    "ry ": 5235,
    "utation": 5236,
    "Montagu": 5237,
    "ten ": 5238,
    "poison": 5239,
    "ervant": 5240,
    "Just": 5241,
    "; b": 5242,
    "it ": 5243,
    "All ": 5244,
    "orry ": 5245,
    "ove ": 5246,
    "!\nTh": 5247,
    "keep the ": 5248,
    "being": 5249,
    "in one ": 5250,
    " brave ": 5251,
    "e\nS": 5252,
    "they": 5253,
    "leis": 5254,
    "anci": 5255,
    " hast": 5256,
    "threaten": 5257,
    "an un": 5258,
    "eat ": 5259,
    "?\n\nCAMILLO:\n": 5260,
    "kindness ": 5261,
    "where ": 5262,
    "my th": 5263,
    "!\n\nFirst Senator": 5264,
    "Margaret": 5265,
    "s\nAre ": 5266,
    "mit": 5267,
    "my son": 5268,
    "gener": 5269,
    "begun": 5270,
    " that's ": 5271,
    "e.\n\nROMEO:\n": 5272,
    "vey": 5273,
    "girl": 5274,
    "might": 5275,
    "Where ": 5276,
    "ESCALUS:\n": 5277,
    "able, ": 5278,
    "I'll be ": 5279,
    "\nOf ": 5280,
    "rant ": 5281,
    "?\n\nROMEO:\n": 5282,
    "bo": 5283,
    ":\nI ": 5284,
    "join": 5285,
    "ELY": 5286,
    ":\nAh, ": 5287,
    " what is ": 5288,
    "zz": 5289,
    "breast ": 5290,
    "behold ": 5291,
    "fet": 5292,
    ":": 5293,
    " beg": 5294,
    " youth": 5295,
    "market-": 5296,
    "a woman": 5297,
    ": then": 5298,
    "York": 5299,
    "for the ": 5300,
    "prayers ": 5301,
    "not? ": 5302,
    "guard ": 5303,
    "bou": 5304,
    "thing ": 5305,
    ".\nI'll ": 5306,
    " brief": 5307,
    "make hast": 5308,
    "rece": 5309,
    "insinu": 5310,
    "spirator": 5311,
    "come ": 5312,
    "pare ": 5313,
    "Margar": 5314,
    "ess, and ": 5315,
    "mortal": 5316,
    "'": 5317,
    "!\n\nMENENIUS:\n": 5318,
    "comes the ": 5319,
    "you, and ": 5320,
    "fly ": 5321,
    "ies,\n": 5322,
    "he w": 5323,
    "I with": 5324,
    "comp": 5325,
    ":\nI know": 5326,
    "cold": 5327,
    "QUEEN ELI": 5328,
    "stab": 5329,
    "have I": 5330,
    "Luci": 5331,
    "ious ": 5332,
    "untimely ": 5333,
    "lesh": 5334,
    "onour ": 5335,
    "ing ": 5336,
    "hath\n": 5337,
    "in ": 5338,
    "yours": 5339,
    "Yet, ": 5340,
    "s to my ": 5341,
    "field\n": 5342,
    "tty ": 5343,
    "gree ": 5344,
    "with my ": 5345,
    "at hand": 5346,
    "-fa": 5347,
    " bra": 5348,
    "etim": 5349,
    "ard ": 5350,
    "Du": 5351,
    ", our": 5352,
    "human": 5353,
    "it.\n": 5354,
    "deceived": 5355,
    "!\n\nKING RICHARD III": 5356,
    "ending ": 5357,
    "a per": 5358,
    "appreh": 5359,
    " stir": 5360,
    "ain": 5361,
    "tless ": 5362,
    "content": 5363,
    "if": 5364,
    "CLARENCE:\n": 5365,
    " bid": 5366,
    "awd": 5367,
    " all my ": 5368,
    "my heart ": 5369,
    "with p": 5370,
    ":\nNot ": 5371,
    "faint ": 5372,
    "cl": 5373,
    "up your": 5374,
    "rest\n": 5375,
    "Claudio": 5376,
    "e,\nWith": 5377,
    "elp": 5378,
    "supper": 5379,
    " till ": 5380,
    "for them": 5381,
    "pose, ": 5382,
    "Antig": 5383,
    "!\n\nFirst ": 5384,
    "private ": 5385,
    ".\n\nGREMIO:\n": 5386,
    "fin": 5387,
    "s be ": 5388,
    "ist ": 5389,
    "young ": 5390,
    "mong": 5391,
    "royal": 5392,
    "ty ": 5393,
    "steal": 5394,
    "Antigon": 5395,
    "ed his ": 5396,
    "wit": 5397,
    "gri": 5398,
    "Ay, ": 5399,
    "give": 5400,
    "the crown": 5401,
    "widow": 5402,
    "charac": 5403,
    "way": 5404,
    "therefore ": 5405,
    "by ": 5406,
    "nurse, ": 5407,
    "?\n\nFirst Citizen": 5408,
    "vest ": 5409,
    "came ": 5410,
    "train": 5411,
    "so long": 5412,
    " to't": 5413,
    "bew": 5414,
    "throne,\n": 5415,
    "hav": 5416,
    "you give ": 5417,
    "Hath": 5418,
    " stand ": 5419,
    ", you": 5420,
    " state ": 5421,
    "Where is ": 5422,
    "tle": 5423,
    "that he ": 5424,
    "fail": 5425,
    " worship": 5426,
    "\nYour": 5427,
    "uppose ": 5428,
    ": h": 5429,
    "!\n\n": 5430,
    " best": 5431,
    "sor": 5432,
    ":\nI am": 5433,
    "is no ": 5434,
    "with you": 5435,
    "ruth": 5436,
    "ake, ": 5437,
    "im ": 5438,
    "or else ": 5439,
    ":\nAt ": 5440,
    " shalt ": 5441,
    "ent ": 5442,
    "should ": 5443,
    "; and I ": 5444,
    "ine and ": 5445,
    "uk": 5446,
    ":\nI hope ": 5447,
    "iol": 5448,
    "st\n": 5449,
    "lew": 5450,
    " our ": 5451,
    "suffer": 5452,
    "one another": 5453,
    "Let them": 5454,
    "use, ": 5455,
    "with me": 5456,
    "get": 5457,
    "look on": 5458,
    "your high": 5459,
    "take my leave ": 5460,
    "s,\nWith": 5461,
    " bound ": 5462,
    "ripe ": 5463,
    " set ": 5464,
    "welcome ": 5465,
    "ild ": 5466,
    "bold": 5467,
    "sport": 5468,
    "I have not ": 5469,
    "DUK": 5470,
    "follower": 5471,
    "Corioli": 5472,
    "must be ": 5473,
    ":\nThis ": 5474,
    "ight": 5475,
    "olf": 5476,
    ", and my ": 5477,
    "d,\nThat ": 5478,
    "tears are ": 5479,
    "O heaven": 5480,
    "here's ": 5481,
    "ENTIO:\n": 5482,
    "bright ": 5483,
    "pale": 5484,
    "inger": 5485,
    "ves, ": 5486,
    " your ": 5487,
    "ETR": 5488,
    "dut": 5489,
    ":\nAy, ": 5490,
    "now 'tis ": 5491,
    "Which ": 5492,
    "sure": 5493,
    "neighbour": 5494,
    "a word ": 5495,
    "egg": 5496,
    " much ": 5497,
    "her b": 5498,
    "say you": 5499,
    " hand": 5500,
    "id": 5501,
    " believ": 5502,
    " dou": 5503,
    "hu": 5504,
    "cept ": 5505,
    "tribunes ": 5506,
    "sty ": 5507,
    "t, the ": 5508,
    "Huntsman": 5509,
    "doing": 5510,
    "I thank you": 5511,
    " them ": 5512,
    "Tru": 5513,
    "all, ": 5514,
    "love, ": 5515,
    "QUEEN MARGAR": 5516,
    "rib": 5517,
    "e, and ": 5518,
    "e, my ": 5519,
    "Soldier": 5520,
    "dread ": 5521,
    "?\nWhere ": 5522,
    " sa": 5523,
    ". His ": 5524,
    " T": 5525,
    "honour'd ": 5526,
    "lur": 5527,
    "hath not ": 5528,
    "ment": 5529,
    "did I": 5530,
    ": I will ": 5531,
    "wound": 5532,
    "on him": 5533,
    "WILLOU": 5534,
    "let us ": 5535,
    ".\n\nBUSHY": 5536,
    "Are ": 5537,
    "why, ": 5538,
    "ends ": 5539,
    ": say ": 5540,
    "ge.\n\n": 5541,
    "you ": 5542,
    ",\nBe": 5543,
    "?\n\nCLAUDIO:\n": 5544,
    "Has ": 5545,
    "rah, ": 5546,
    "edges ": 5547,
    "VAL": 5548,
    "First ": 5549,
    "ft ": 5550,
    "slew": 5551,
    ":\nAnd so ": 5552,
    "pursu": 5553,
    "; so ": 5554,
    ": for": 5555,
    "poke ": 5556,
    ".\n\nDUKE VINCENTIO:\n": 5557,
    "fear the ": 5558,
    "ised ": 5559,
    "bol": 5560,
    "ood, ": 5561,
    " this, ": 5562,
    "medi": 5563,
    " in your ": 5564,
    "strang": 5565,
    ".\n\nFirst Gentleman": 5566,
    "for t": 5567,
    "conquer": 5568,
    " came ": 5569,
    "longer": 5570,
    "s upon": 5571,
    "house of Lancaster": 5572,
    "i' the ": 5573,
    "laughter": 5574,
    "usp": 5575,
    "? I": 5576,
    "ISTRESS OVER": 5577,
    "shop": 5578,
    "kinsman": 5579,
    "banish": 5580,
    "palm": 5581,
    "good my lord": 5582,
    "ities": 5583,
    "hath d": 5584,
    "hence ": 5585,
    "you d": 5586,
    "e'll be ": 5587,
    "chance ": 5588,
    ",\nI": 5589,
    ",\nSuch": 5590,
    "a c": 5591,
    "Go to": 5592,
    "AMILLIUS:\n": 5593,
    " to be ": 5594,
    "offer'd ": 5595,
    "cease ": 5596,
    "ERD": 5597,
    "set ": 5598,
    "'d to ": 5599,
    "ure": 5600,
    "almost ": 5601,
    "officer": 5602,
    "once again": 5603,
    "y is ": 5604,
    "reat ": 5605,
    "R": 5606,
    "entreat ": 5607,
    " which": 5608,
    "above ": 5609,
    " bro": 5610,
    "absent ": 5611,
    "lieve ": 5612,
    ":\nThen, ": 5613,
    " here": 5614,
    "them, ": 5615,
    "oldier": 5616,
    "your worship": 5617,
    "ages ": 5618,
    ",\nWill ": 5619,
    ",\nToo ": 5620,
    "Pla": 5621,
    "get ": 5622,
    "the common": 5623,
    " hope ": 5624,
    "throat": 5625,
    "We ": 5626,
    "fie, ": 5627,
    "ort": 5628,
    "!\nWhat ": 5629,
    "in the ": 5630,
    "OF": 5631,
    "such a ": 5632,
    "I be ": 5633,
    "Mine ": 5634,
    " that be ": 5635,
    "thee ": 5636,
    "the gat": 5637,
    " temp": 5638,
    ".\n\nQUEEN ELIZABETH": 5639,
    "Oxfor": 5640,
    ": to ": 5641,
    ";\nBut, ": 5642,
    "eign": 5643,
    "me\n": 5644,
    "sir, and ": 5645,
    "?\n\nMessenger": 5646,
    "breathe ": 5647,
    ",\nBe ": 5648,
    "hurt ": 5649,
    "where": 5650,
    " shall be ": 5651,
    "exer": 5652,
    ".\nI have ": 5653,
    "know\nThe ": 5654,
    "contented ": 5655,
    "mine.\n\n": 5656,
    "ET:\n": 5657,
    "our g": 5658,
    "int ": 5659,
    "I'll ": 5660,
    "ene": 5661,
    "I think it ": 5662,
    "die.\n\n": 5663,
    "head, ": 5664,
    " hang": 5665,
    ",\nTo be ": 5666,
    "doth": 5667,
    "raitor": 5668,
    "! and ": 5669,
    "kept ": 5670,
    "heaven, ": 5671,
    " in\n": 5672,
    "and ": 5673,
    "orrow": 5674,
    ":\nMarry, ": 5675,
    "'n": 5676,
    "OMP": 5677,
    "all this": 5678,
    "s and ": 5679,
    "NORTH": 5680,
    "they\n": 5681,
    "stain": 5682,
    "renown": 5683,
    "service, ": 5684,
    "break": 5685,
    "laid ": 5686,
    " while ": 5687,
    ". But, ": 5688,
    "eak": 5689,
    "oppos": 5690,
    "GLOUCESTER": 5691,
    "sever": 5692,
    "thus far": 5693,
    "though": 5694,
    "comb": 5695,
    "LEWIS XI": 5696,
    " well-": 5697,
    "oll": 5698,
    " of my ": 5699,
    ";\nFor ": 5700,
    "must have ": 5701,
    "majesty ": 5702,
    "ison ": 5703,
    ":\nHe hath": 5704,
    "FRIAR LAUR": 5705,
    "sup": 5706,
    "frigh": 5707,
    "John": 5708,
    "white ": 5709,
    "ondr": 5710,
    "pretty ": 5711,
    "rema": 5712,
    "hear the ": 5713,
    "can be ": 5714,
    "reck": 5715,
    ",\nIt ": 5716,
    "AMPSON": 5717,
    "strous ": 5718,
    "love\n": 5719,
    "omer": 5720,
    "death, ": 5721,
    "will ": 5722,
    " with you": 5723,
    ",\nAnd leave ": 5724,
    "Henry, ": 5725,
    "When": 5726,
    "Watchman": 5727,
    "istor": 5728,
    " tears ": 5729,
    "ector": 5730,
    " no ": 5731,
    "to s": 5732,
    "umph": 5733,
    "length": 5734,
    "afternoon": 5735,
    "passion": 5736,
    "skull": 5737,
    "jeal": 5738,
    "'d by ": 5739,
    "\nUnto the ": 5740,
    "trust ": 5741,
    "town": 5742,
    ".\n\nFRIAR LAURENCE:\n": 5743,
    "ES": 5744,
    "more\n": 5745,
    "flower": 5746,
    " me ": 5747,
    " spo": 5748,
    "en'd ": 5749,
    "of such": 5750,
    "ent and ": 5751,
    "deliver": 5752,
    ".\n\nLAR": 5753,
    "hatch": 5754,
    " brought ": 5755,
    "tch": 5756,
    "k": 5757,
    "trouble ": 5758,
    "otion": 5759,
    "uch": 5760,
    "Ed": 5761,
    "ald": 5762,
    " suspicion": 5763,
    "ies\n": 5764,
    "atic": 5765,
    " dost ": 5766,
    "to your": 5767,
    "AUTOLYC": 5768,
    "s,\nAnd ": 5769,
    " than ": 5770,
    " ba": 5771,
    "truly ": 5772,
    "simp": 5773,
    "inf": 5774,
    "ardon": 5775,
    "Wh": 5776,
    "me and ": 5777,
    "for I": 5778,
    "it not": 5779,
    ".\nB": 5780,
    "Gaunt ": 5781,
    " wish": 5782,
    "ISTRESS OVERD": 5783,
    ".\n\nCitizens": 5784,
    "four": 5785,
    "Welsh": 5786,
    " c": 5787,
    "'st thou": 5788,
    ":\nI w": 5789,
    "Lo, ": 5790,
    "Vol": 5791,
    "prisoner": 5792,
    "Jove ": 5793,
    ", for ": 5794,
    "No ": 5795,
    "THOMAS MOW": 5796,
    "ed ": 5797,
    " to his ": 5798,
    "I beseech": 5799,
    ":\nGood ": 5800,
    "time\n": 5801,
    "ess,\n": 5802,
    "in arm": 5803,
    "Mant": 5804,
    "make thee ": 5805,
    "hand, ": 5806,
    "sun": 5807,
    "tal": 5808,
    "choler": 5809,
    "?\n\nPETRUCHIO:\n": 5810,
    "oh": 5811,
    "EORGE:\n": 5812,
    "art, ": 5813,
    "LAND": 5814,
    "Willi": 5815,
    "il to ": 5816,
    "vail": 5817,
    "thou not ": 5818,
    "ute ": 5819,
    "question": 5820,
    "leap": 5821,
    "morning": 5822,
    "ruction": 5823,
    "bove the ": 5824,
    "do it ": 5825,
    "into ": 5826,
    "Aumerle, ": 5827,
    "high": 5828,
    "close ": 5829,
    "in these ": 5830,
    "forgot ": 5831,
    "Will ": 5832,
    " false ": 5833,
    " heir": 5834,
    "ool": 5835,
    "t, but ": 5836,
    "ved": 5837,
    ":\nSpeak": 5838,
    "der ": 5839,
    "wif": 5840,
    "Or": 5841,
    " drum": 5842,
    "kne": 5843,
    ",\nHath": 5844,
    "excuse": 5845,
    "Comm": 5846,
    "ollower": 5847,
    "do't": 5848,
    "ratch": 5849,
    "'d with ": 5850,
    "murder": 5851,
    "lin": 5852,
    "youngest ": 5853,
    "move ": 5854,
    "people's ": 5855,
    "sword": 5856,
    "UMIO:\n": 5857,
    "nock": 5858,
    " to my ": 5859,
    ".\nHe ": 5860,
    "prevail": 5861,
    " thou art ": 5862,
    "queen, ": 5863,
    "lost": 5864,
    "in all": 5865,
    "key": 5866,
    "are thy ": 5867,
    "ton": 5868,
    "s\n": 5869,
    ".\n\nLORD ": 5870,
    "devise": 5871,
    "No more ": 5872,
    "TANL": 5873,
    "whose ": 5874,
    "Than": 5875,
    "money": 5876,
    "tune ": 5877,
    "I did ": 5878,
    "English": 5879,
    " themselves": 5880,
    "hung": 5881,
    ":\nHis ": 5882,
    "England, ": 5883,
    "deserved ": 5884,
    "beaut": 5885,
    "forward ": 5886,
    "d\nAs ": 5887,
    "les": 5888,
    ".\n\nQUEEN": 5889,
    "out the ": 5890,
    "dom": 5891,
    "shall not ": 5892,
    "it would ": 5893,
    "thou d": 5894,
    "eder": 5895,
    "come, ": 5896,
    "JOHN OF G": 5897,
    "igh": 5898,
    "view": 5899,
    "so far": 5900,
    " dear ": 5901,
    "ents ": 5902,
    " country's ": 5903,
    "ince": 5904,
    "ghost": 5905,
    "tar": 5906,
    "jealous ": 5907,
    "ssip": 5908,
    "challen": 5909,
    "plant ": 5910,
    "your h": 5911,
    "e.\n\n": 5912,
    "vin": 5913,
    "Berk": 5914,
    " it be ": 5915,
    "a-": 5916,
    "are we ": 5917,
    ".\n\nJULIET:\n": 5918,
    "pose": 5919,
    "EM": 5920,
    "sa": 5921,
    "\nM": 5922,
    "you de": 5923,
    ". For": 5924,
    ":\nCome ": 5925,
    "obedi": 5926,
    "castle": 5927,
    "king's ": 5928,
    "Will": 5929,
    "\nBefore ": 5930,
    "of those ": 5931,
    "he's ": 5932,
    " mine ": 5933,
    "ple ": 5934,
    "s,\nAs ": 5935,
    "judge": 5936,
    "dare ": 5937,
    ".\n\nVOLUMNIA": 5938,
    "Go": 5939,
    "how it ": 5940,
    "e-": 5941,
    "with our": 5942,
    "nurse ": 5943,
    "die,\n": 5944,
    ". I ": 5945,
    " all the ": 5946,
    "had he ": 5947,
    "child": 5948,
    "LEOM": 5949,
    "father ": 5950,
    "ed out ": 5951,
    "doth he ": 5952,
    "ade me ": 5953,
    "ere, ": 5954,
    "sir, ": 5955,
    "jour": 5956,
    "ian ": 5957,
    "seth": 5958,
    "of min": 5959,
    "general": 5960,
    " always ": 5961,
    " grave ": 5962,
    ":\nW": 5963,
    "malice": 5964,
    "moon": 5965,
    ".\n\nDUKE OF YORK": 5966,
    "among": 5967,
    "s, good ": 5968,
    "Why ": 5969,
    "years\n": 5970,
    " come ": 5971,
    "was, ": 5972,
    " of their": 5973,
    "I, ": 5974,
    " he": 5975,
    "liar": 5976,
    "of men, ": 5977,
    "re ": 5978,
    "lest ": 5979,
    "ANTIGONUS:\n": 5980,
    " car": 5981,
    "shall I ": 5982,
    "which is ": 5983,
    "here": 5984,
    "ta'en ": 5985,
    "up the ": 5986,
    " acqu": 5987,
    "'t not ": 5988,
    "you have been": 5989,
    " pro": 5990,
    "there's ": 5991,
    " these ": 5992,
    " see ": 5993,
    ".\n\nEXETER": 5994,
    " an ": 5995,
    "lef": 5996,
    "often": 5997,
    ",\nR": 5998,
    "\nWere ": 5999,
    "Their": 6000,
    "ENC": 6001,
    "!'": 6002,
    "sacred ": 6003,
    "along": 6004,
    "never": 6005,
    "ghter ": 6006,
    "young": 6007,
    "Thank": 6008,
    "thy\n": 6009,
    "; there ": 6010,
    "EXETER": 6011,
    "was ": 6012,
    "wor": 6013,
    "wind ": 6014,
    "it me ": 6015,
    " grea": 6016,
    "toward ": 6017,
    " got ": 6018,
    "new": 6019,
    "ily": 6020,
    "where is ": 6021,
    "life.\n\n": 6022,
    "world\n": 6023,
    " go": 6024,
    "I b": 6025,
    "Kath": 6026,
    "enemies": 6027,
    "Rome": 6028,
    "realm": 6029,
    ";\nFor": 6030,
    "feit ": 6031,
    "possible ": 6032,
    "y,\nThe ": 6033,
    "prevent ": 6034,
    "chil": 6035,
    "ost ": 6036,
    "faith": 6037,
    "DUKE V": 6038,
    "--\nAs ": 6039,
    ",\nYour ": 6040,
    "humble ": 6041,
    "undred ": 6042,
    "Do ": 6043,
    "eful": 6044,
    "lap": 6045,
    "There was ": 6046,
    "you to the ": 6047,
    "thor": 6048,
    "s; and ": 6049,
    "LADY CAPULET": 6050,
    "Tell me, ": 6051,
    "Montague ": 6052,
    "em": 6053,
    "!--": 6054,
    "allow": 6055,
    "beauty ": 6056,
    " no mor": 6057,
    " as we ": 6058,
    "between": 6059,
    "d, but ": 6060,
    "Hark": 6061,
    " holy ": 6062,
    ":\nSo, ": 6063,
    "dwell": 6064,
    "ore ": 6065,
    "counsell": 6066,
    "and": 6067,
    "swift ": 6068,
    "Boling": 6069,
    "WILLOUGHBY": 6070,
    "it is ": 6071,
    "tellig": 6072,
    " met": 6073,
    "business": 6074,
    "dle ": 6075,
    "against my ": 6076,
    "ing, as ": 6077,
    "night, ": 6078,
    "AUL": 6079,
    "my lord ": 6080,
    "des": 6081,
    "s with": 6082,
    " dost thou": 6083,
    "ect ": 6084,
    "d,\n": 6085,
    "eace ": 6086,
    "Un": 6087,
    " hour": 6088,
    "ing, and ": 6089,
    " prison": 6090,
    "it is, ": 6091,
    "rath": 6092,
    "gover": 6093,
    "uff": 6094,
    "Than ": 6095,
    "CARLIS": 6096,
    "ally ": 6097,
    ".\n\nCORIOLANUS:\n": 6098,
    "VIR": 6099,
    "in\nthe ": 6100,
    "att": 6101,
    "while ": 6102,
    "offence": 6103,
    "sett": 6104,
    "able ": 6105,
    "if\n": 6106,
    "Now ": 6107,
    " power": 6108,
    "ORIO": 6109,
    "LADY ANNE:\n": 6110,
    "owe ": 6111,
    ". He ": 6112,
    "true, ": 6113,
    "Too ": 6114,
    "pra": 6115,
    "a kind of ": 6116,
    ":\nTherefore ": 6117,
    "prince": 6118,
    "the general": 6119,
    "sbur": 6120,
    "t to ": 6121,
    "court": 6122,
    "redres": 6123,
    "s but ": 6124,
    "ine": 6125,
    "you were ": 6126,
    ".\n\nPARIS:\n": 6127,
    "thou, ": 6128,
    "must": 6129,
    " at this ": 6130,
    "maids ": 6131,
    "lif": 6132,
    "chool": 6133,
    "means ": 6134,
    " done ": 6135,
    ".\n\nLord": 6136,
    "heap": 6137,
    "ses": 6138,
    "Let ": 6139,
    "happy ": 6140,
    "pey": 6141,
    "eed ": 6142,
    "dou": 6143,
    " de": 6144,
    "ave ": 6145,
    "s,\nIn": 6146,
    "the\n": 6147,
    "for ": 6148,
    ",\nFrom": 6149,
    "I shall ": 6150,
    "with the ": 6151,
    "make\n": 6152,
    "clud": 6153,
    "s,\nThe ": 6154,
    "unto my ": 6155,
    "teen ": 6156,
    "etime ": 6157,
    "'dst ": 6158,
    "a ": 6159,
    " speed": 6160,
    "which you": 6161,
    "\nWhose ": 6162,
    ",\nOf": 6163,
    "good sir": 6164,
    "grief": 6165,
    "sick": 6166,
    "sit ": 6167,
    "in her": 6168,
    "pace": 6169,
    "suffer ": 6170,
    " brea": 6171,
    "think": 6172,
    "not ": 6173,
    "; h": 6174,
    " with my ": 6175,
    "our m": 6176,
    "e's ": 6177,
    " commission": 6178,
    "I may ": 6179,
    "env": 6180,
    "cur": 6181,
    " particular": 6182,
    "LI": 6183,
    "such ": 6184,
    "of s": 6185,
    "circum": 6186,
    "rit": 6187,
    "F": 6188,
    "what ": 6189,
    "Henry's ": 6190,
    "friend ": 6191,
    ".\nThus ": 6192,
    "liffor": 6193,
    "y, and ": 6194,
    "horse ": 6195,
    "urderer": 6196,
    "unless ": 6197,
    " burn": 6198,
    "lets ": 6199,
    "to come ": 6200,
    ".\n\nLADY CAPULET": 6201,
    "anchor": 6202,
    "say, ": 6203,
    " acc": 6204,
    "hear it": 6205,
    "conclud": 6206,
    "father's death": 6207,
    "friar, ": 6208,
    "Gaunt": 6209,
    "need": 6210,
    "Northumber": 6211,
    "repose ": 6212,
    "years ": 6213,
    "erc": 6214,
    "HASTINGS:\n": 6215,
    " worse": 6216,
    "hat's ": 6217,
    "Co": 6218,
    "ought ": 6219,
    "me ": 6220,
    "necess": 6221,
    "ano": 6222,
    ".\n\nKING ": 6223,
    "can ": 6224,
    "hear": 6225,
    " tell me ": 6226,
    "restrain": 6227,
    "nap": 6228,
    "not speak": 6229,
    "name ": 6230,
    "disposition": 6231,
    ":\nI thank": 6232,
    "weet ": 6233,
    ". P": 6234,
    "open": 6235,
    "ome ": 6236,
    "\nT": 6237,
    "viol": 6238,
    "some": 6239,
    "ly\n": 6240,
    "loving ": 6241,
    "s; the ": 6242,
    "quest": 6243,
    ":\nNow ": 6244,
    "from him": 6245,
    "gift": 6246,
    "in d": 6247,
    "\n'": 6248,
    "Marian": 6249,
    "daughter ": 6250,
    " majest": 6251,
    "there\n": 6252,
    ";\nThis ": 6253,
    "mo": 6254,
    " art ": 6255,
    ";\nAnd what ": 6256,
    ", I have ": 6257,
    "e!": 6258,
    "prin": 6259,
    "wi": 6260,
    "my gracious lord": 6261,
    "a guest": 6262,
    "months ": 6263,
    "name\n": 6264,
    "ell, ": 6265,
    "moan": 6266,
    "sent for": 6267,
    "ambitious ": 6268,
    "Marcius": 6269,
    "erve ": 6270,
    "angel": 6271,
    "says ": 6272,
    "erefore ": 6273,
    "essed ": 6274,
    "Hortens": 6275,
    "\nHow": 6276,
    "victory": 6277,
    "of all ": 6278,
    "EMIO:\n": 6279,
    "; yet ": 6280,
    "do not ": 6281,
    ": farewell": 6282,
    " both": 6283,
    "e.\n\nMENENIUS:\n": 6284,
    " thyself": 6285,
    "\nBy ": 6286,
    "from her": 6287,
    ":\nWelcome, ": 6288,
    "oc": 6289,
    "shal": 6290,
    "our t": 6291,
    "resolv": 6292,
    "poor soul": 6293,
    "rec": 6294,
    "more than": 6295,
    "they have ": 6296,
    "Whether ": 6297,
    "ush, ": 6298,
    "AMILL": 6299,
    "hor": 6300,
    "a t": 6301,
    "blood of ": 6302,
    ",\nAnd ": 6303,
    "e,\nWhich": 6304,
    "arm": 6305,
    "be it ": 6306,
    ".\n\nLEONTES:\n": 6307,
    "KING EDWARD IV": 6308,
    "noble ": 6309,
    "well, ": 6310,
    "wisdom": 6311,
    " the": 6312,
    "arri": 6313,
    "anced ": 6314,
    "resolve ": 6315,
    ": we ": 6316,
    "'st ": 6317,
    "I s": 6318,
    "ump": 6319,
    "stout ": 6320,
    "itiz": 6321,
    "ft": 6322,
    "forswear": 6323,
    ";\nThy ": 6324,
    "ARCH": 6325,
    " bear the ": 6326,
    "ness ": 6327,
    "tell my ": 6328,
    "equal": 6329,
    "knew": 6330,
    "yonder ": 6331,
    "in a": 6332,
    "servic": 6333,
    "THOMAS MOWBRA": 6334,
    "e.\n\nSICINIUS:\n": 6335,
    " heart": 6336,
    "ood": 6337,
    "own, ": 6338,
    " on the ": 6339,
    "ig": 6340,
    "as ": 6341,
    "leave the ": 6342,
    "s\nIn": 6343,
    "!\nS": 6344,
    " at all": 6345,
    "enrich": 6346,
    "erp": 6347,
    " more than": 6348,
    "mel": 6349,
    " a c": 6350,
    "ured ": 6351,
    " dis": 6352,
    "ly:": 6353,
    "bloo": 6354,
    "kind": 6355,
    "EST": 6356,
    "fearful": 6357,
    "Think": 6358,
    "declin": 6359,
    "por": 6360,
    "doubt not ": 6361,
    " harm": 6362,
    "false": 6363,
    "Nor": 6364,
    "ight ": 6365,
    "ray ": 6366,
    "I": 6367,
    "s! ": 6368,
    "woes ": 6369,
    "child\n": 6370,
    "lain": 6371,
    "hast thou": 6372,
    "hood": 6373,
    "tell thee ": 6374,
    "oor": 6375,
    "et": 6376,
    "Menenius": 6377,
    "nothing ": 6378,
    "right ": 6379,
    "into my ": 6380,
    "orator": 6381,
    "wherefore ": 6382,
    "held ": 6383,
    "over-": 6384,
    "ised": 6385,
    "Pom": 6386,
    "for her ": 6387,
    "bishop": 6388,
    "crow": 6389,
    "spring": 6390,
    "gently ": 6391,
    "spare ": 6392,
    "ili": 6393,
    "precious ": 6394,
    "home, ": 6395,
    "\nWill ": 6396,
    "tell him": 6397,
    "promise ": 6398,
    "que": 6399,
    "secre": 6400,
    ".\n\nRIVERS:\n": 6401,
    " once ": 6402,
    "take the ": 6403,
    "res": 6404,
    "itself": 6405,
    ",\nAnd therefore ": 6406,
    "a king": 6407,
    ".\nP": 6408,
    ".\n\nTRANIO:\n": 6409,
    "house ": 6410,
    "ation of": 6411,
    "! O": 6412,
    " stain": 6413,
    "e.\n\nSecond ": 6414,
    "children, ": 6415,
    "ed by ": 6416,
    "sudden": 6417,
    "\nTh": 6418,
    "UCH": 6419,
    "an's ": 6420,
    "ine, ": 6421,
    "living ": 6422,
    "lament ": 6423,
    "FIT": 6424,
    "--": 6425,
    "These ": 6426,
    "t, and ": 6427,
    "up his ": 6428,
    "judgment": 6429,
    "hold, ": 6430,
    ", thy ": 6431,
    "march": 6432,
    " OF ": 6433,
    "a man": 6434,
    "UR": 6435,
    "; now": 6436,
    "the soul": 6437,
    "outh": 6438,
    " but": 6439,
    "author": 6440,
    "ies": 6441,
    "ius": 6442,
    ".\nGive me ": 6443,
    " husband ": 6444,
    "witch": 6445,
    "things ": 6446,
    "contemp": 6447,
    ":\nSweet ": 6448,
    " seiz": 6449,
    "pass": 6450,
    "press ": 6451,
    "WESTMOR": 6452,
    "les ": 6453,
    ":\nTo ": 6454,
    "ce, ": 6455,
    "d, that ": 6456,
    "s from": 6457,
    "\nIn ": 6458,
    ".\nHow": 6459,
    "AMP": 6460,
    "Comfor": 6461,
    "taste ": 6462,
    "king ": 6463,
    "ities ": 6464,
    " away ": 6465,
    "title": 6466,
    "ly, ": 6467,
    "Can ": 6468,
    "blind ": 6469,
    ", I think": 6470,
    "!\nMy ": 6471,
    ", in": 6472,
    "ance": 6473,
    " mak": 6474,
    "I beseech you": 6475,
    "absence ": 6476,
    "enough to ": 6477,
    "God's ": 6478,
    "! O ": 6479,
    " there's ": 6480,
    "now": 6481,
    "ying": 6482,
    "body": 6483,
    "MARIAN": 6484,
    "requ": 6485,
    "Shall": 6486,
    "become ": 6487,
    " grow": 6488,
    "powerful": 6489,
    "ABHORSON": 6490,
    ":\nCome, ": 6491,
    "I not ": 6492,
    "self": 6493,
    "please ": 6494,
    "Capulet": 6495,
    "like, ": 6496,
    "and our": 6497,
    " wound": 6498,
    " though": 6499,
    " I may ": 6500,
    " sla": 6501,
    "by, ": 6502,
    "ts and ": 6503,
    "ast ": 6504,
    "ting ": 6505,
    "love ": 6506,
    "home ": 6507,
    "thou\n": 6508,
    " his": 6509,
    "now the ": 6510,
    " shake ": 6511,
    "call the ": 6512,
    "ros": 6513,
    "their t": 6514,
    "Z": 6515,
    "bea": 6516,
    "bell": 6517,
    "I have done ": 6518,
    " be": 6519,
    " oft ": 6520,
    "Yea": 6521,
    "ab": 6522,
    "!\nAnd ": 6523,
    "KING RICHARD II": 6524,
    "wice ": 6525,
    "!\nO, ": 6526,
    "; where ": 6527,
    "life;\n": 6528,
    "crush": 6529,
    "I am not ": 6530,
    "; that ": 6531,
    "envi": 6532,
    "Master Froth": 6533,
    "min": 6534,
    "we'll ": 6535,
    "forced ": 6536,
    "TH": 6537,
    "ba": 6538,
    ": ": 6539,
    ",\nAnd, ": 6540,
    "if you": 6541,
    " in ": 6542,
    "FITZWAT": 6543,
    "seek": 6544,
    " manner": 6545,
    "deserve ": 6546,
    ": it ": 6547,
    "iliar": 6548,
    "God ": 6549,
    "S ": 6550,
    "you all": 6551,
    ".\n\nFirst Citizen:\n": 6552,
    "I heard ": 6553,
    "\nOn": 6554,
    "-house": 6555,
    "A": 6556,
    "water": 6557,
    "from thy ": 6558,
    "; they ": 6559,
    "car": 6560,
    ":\nHow ": 6561,
    "Who, ": 6562,
    "ild": 6563,
    "but the ": 6564,
    " suit": 6565,
    "force": 6566,
    "He hath": 6567,
    "Or else ": 6568,
    "see\n": 6569,
    "eyes ": 6570,
    "\nOf my ": 6571,
    "being ": 6572,
    "BRUTUS:\n": 6573,
    "How long": 6574,
    "Rather": 6575,
    "gar": 6576,
    ":\nWould ": 6577,
    " work": 6578,
    "-b": 6579,
    "thir": 6580,
    "KING": 6581,
    "Draw": 6582,
    "can": 6583,
    " widow": 6584,
    "Sicilia": 6585,
    " hop": 6586,
    "proud ": 6587,
    "ea, ": 6588,
    "a b": 6589,
    "no, ": 6590,
    "me no ": 6591,
    "of the duk": 6592,
    "On": 6593,
    "ed with ": 6594,
    "down, ": 6595,
    "vantag": 6596,
    ".\n\nThird Servingman": 6597,
    "red ": 6598,
    "SON": 6599,
    "bless ": 6600,
    "e.\n\nFRIAR LAURENCE:\n": 6601,
    " sad ": 6602,
    ".\n\nISABELLA:\nO, ": 6603,
    "tim": 6604,
    ":\nTru": 6605,
    ".\nThe ": 6606,
    "power": 6607,
    "entertain": 6608,
    " scorn": 6609,
    "sha": 6610,
    "pet": 6611,
    "noble lord": 6612,
    "ummer": 6613,
    "selfsame ": 6614,
    "eye": 6615,
    "fter": 6616,
    ":\nMadam, ": 6617,
    "enter ": 6618,
    "act ": 6619,
    "thou g": 6620,
    "none": 6621,
    "cross ": 6622,
    "I see": 6623,
    "d?\n": 6624,
    ",\nThan": 6625,
    "fright ": 6626,
    "s?": 6627,
    "I had ": 6628,
    "time": 6629,
    "market": 6630,
    "urder ": 6631,
    "; and\n": 6632,
    "'d\nThe ": 6633,
    "would have ": 6634,
    ".\n\nRICHMOND": 6635,
    " bea": 6636,
    "?\n\nJULIET": 6637,
    "ready": 6638,
    " hold ": 6639,
    " friends ": 6640,
    "till the ": 6641,
    "your daughter": 6642,
    "a th": 6643,
    "utor": 6644,
    "ord, ": 6645,
    "id ": 6646,
    "lea": 6647,
    "ren": 6648,
    " send ": 6649,
    " begin": 6650,
    "him, ": 6651,
    "s\nDo ": 6652,
    ", good ": 6653,
    " dew": 6654,
    "sits ": 6655,
    "brought ": 6656,
    "de": 6657,
    "a d": 6658,
    "pluck": 6659,
    "AR": 6660,
    "IL": 6661,
    "oodly ": 6662,
    "obj": 6663,
    "he would ": 6664,
    "led by ": 6665,
    "corrup": 6666,
    "here, ": 6667,
    "ALTH": 6668,
    "blessed ": 6669,
    "hea": 6670,
    "Had ": 6671,
    "fied": 6672,
    "a great ": 6673,
    ".\nW": 6674,
    "ge,\n": 6675,
    "Sir": 6676,
    "shepherd": 6677,
    "but that ": 6678,
    "executioner": 6679,
    "it is": 6680,
    "Musician": 6681,
    "obey": 6682,
    " disposition": 6683,
    "is too ": 6684,
    "ENENIUS:\n": 6685,
    "sof": 6686,
    "eyes\n": 6687,
    " wall": 6688,
    "naked, ": 6689,
    "ale ": 6690,
    ",\nWhen": 6691,
    " horse": 6692,
    "faults ": 6693,
    "; s": 6694,
    " behold ": 6695,
    "\nUpon the ": 6696,
    "shepherd ": 6697,
    "sign": 6698,
    "on": 6699,
    "happiness ": 6700,
    "P": 6701,
    "t\nThe ": 6702,
    "gentlemen": 6703,
    "spark": 6704,
    "did ": 6705,
    "now I ": 6706,
    "ri": 6707,
    ";\n": 6708,
    "thought": 6709,
    "farewell ": 6710,
    " heart\n": 6711,
    "stru": 6712,
    "ected ": 6713,
    "as good ": 6714,
    "I would ": 6715,
    "law": 6716,
    "daughter, ": 6717,
    "ty of ": 6718,
    "es are ": 6719,
    "within my ": 6720,
    "sharp": 6721,
    "blood\n": 6722,
    "ar": 6723,
    "enforce ": 6724,
    " as ": 6725,
    ".\n\nMARCIUS:\n": 6726,
    "ining": 6727,
    "a very ": 6728,
    "circ": 6729,
    "epherd": 6730,
    "find\n": 6731,
    "orac": 6732,
    "!\n\nKING RICHARD II": 6733,
    "!' ": 6734,
    ":\nIn": 6735,
    "erve": 6736,
    ".\n\nSecond Gentleman": 6737,
    "Five ": 6738,
    "mark": 6739,
    "lose": 6740,
    "joy, ": 6741,
    "she, ": 6742,
    "better than": 6743,
    "like the ": 6744,
    "--\n\n": 6745,
    "WILLO": 6746,
    "Our ": 6747,
    "lend ": 6748,
    "etern": 6749,
    ":\nNow, ": 6750,
    ";\nHe ": 6751,
    ".\n\nLUCENTIO:\n": 6752,
    " for": 6753,
    ".\n\nOXFORD": 6754,
    "lord ": 6755,
    "live ": 6756,
    "st, and ": 6757,
    " may, ": 6758,
    " hell": 6759,
    ".\n\nCAPUL": 6760,
    "land ": 6761,
    " dish": 6762,
    "ate, ": 6763,
    "with a p": 6764,
    "OW": 6765,
    "!\nH": 6766,
    "\nL": 6767,
    ": so ": 6768,
    "ances ": 6769,
    "on this ": 6770,
    ".'\n": 6771,
    " a very ": 6772,
    "child, ": 6773,
    " match": 6774,
    "s at ": 6775,
    "fall": 6776,
    ":\n'Tis ": 6777,
    " word": 6778,
    "maid ": 6779,
    "spake ": 6780,
    "e,\n": 6781,
    "old man": 6782,
    "my ": 6783,
    "Hear": 6784,
    "Bian": 6785,
    "pleased ": 6786,
    "y\nTo ": 6787,
    "till": 6788,
    ":\nWhich": 6789,
    " draw": 6790,
    "AUTOLY": 6791,
    "ooth": 6792,
    "least ": 6793,
    "Rosal": 6794,
    " me.\n\n": 6795,
    "e's\n": 6796,
    "idow": 6797,
    "Take ": 6798,
    "you are ": 6799,
    "he that ": 6800,
    "'d it ": 6801,
    "hast ": 6802,
    ",\n": 6803,
    "a poor": 6804,
    "gon": 6805,
    "?\n\nAUTOLYCUS:\n": 6806,
    "are you": 6807,
    "corse": 6808,
    "Rivers, ": 6809,
    "in hand": 6810,
    "zeal": 6811,
    "JUL": 6812,
    "tt": 6813,
    "iver": 6814,
    "peace": 6815,
    "charity ": 6816,
    "edom": 6817,
    "lantagen": 6818,
    "soci": 6819,
    "Duke of York": 6820,
    "stands ": 6821,
    " give ": 6822,
    ".\n\nBUCKINGHAM": 6823,
    ", we ": 6824,
    "mother, ": 6825,
    "came from ": 6826,
    ".\nBut, ": 6827,
    "rother": 6828,
    " he\n": 6829,
    "it may ": 6830,
    "ous, and ": 6831,
    " home": 6832,
    "liction": 6833,
    "dden": 6834,
    "your own": 6835,
    "Earl of Wilt": 6836,
    "RICHARD II": 6837,
    "shall be ": 6838,
    "by thy ": 6839,
    "coming": 6840,
    "let's away": 6841,
    "able": 6842,
    ",\nTo make ": 6843,
    "nob": 6844,
    "ing-": 6845,
    ",\nWould ": 6846,
    "aster": 6847,
    "!\n\nClown": 6848,
    "fla": 6849,
    "Fri": 6850,
    "\nFor ": 6851,
    "urch": 6852,
    "grace ": 6853,
    "Exeter": 6854,
    " a f": 6855,
    "thou the ": 6856,
    "usician": 6857,
    "in all ": 6858,
    "?\n\nQUEEN ELIZABETH": 6859,
    " I should ": 6860,
    "se, ": 6861,
    "s by ": 6862,
    "woo": 6863,
    "attain": 6864,
    " me, and ": 6865,
    "mistres": 6866,
    "EXT": 6867,
    "upon his ": 6868,
    ".\n\nShepherd": 6869,
    "'d\n": 6870,
    "bad ": 6871,
    "the duke ": 6872,
    "RATC": 6873,
    "ust": 6874,
    "?\nH": 6875,
    "Most ": 6876,
    "confer": 6877,
    "Cliffor": 6878,
    "e\nThat ": 6879,
    " injur": 6880,
    "laugh": 6881,
    "thankful": 6882,
    "?\n\nANGELO:\n": 6883,
    "thou ": 6884,
    "ROM": 6885,
    "an old ": 6886,
    "parted ": 6887,
    "house, ": 6888,
    "lady, ": 6889,
    "not have ": 6890,
    "together": 6891,
    "believe ": 6892,
    " way": 6893,
    ", my lord, ": 6894,
    ": therefore ": 6895,
    "e.\n\nCOMINIUS:\n": 6896,
    "remo": 6897,
    " bring": 6898,
    "wing": 6899,
    "eaven": 6900,
    "entlewoman": 6901,
    " humble ": 6902,
    "fro": 6903,
    "\nP": 6904,
    "against ": 6905,
    "as his ": 6906,
    "to, ": 6907,
    "consequ": 6908,
    " mourn": 6909,
    " with me": 6910,
    " the ": 6911,
    "en thousand ": 6912,
    ":\nWell, ": 6913,
    "folk": 6914,
    "horn": 6915,
    "Show": 6916,
    "pawn": 6917,
    "flatter": 6918,
    "ade ": 6919,
    " fo": 6920,
    "glad": 6921,
    " will": 6922,
    "IR STEPHEN S": 6923,
    "ug": 6924,
    "beggar": 6925,
    "farewell": 6926,
    "t\nWith": 6927,
    "born": 6928,
    "O'": 6929,
    "strok": 6930,
    "bled ": 6931,
    "?\n\nPOLIXENES:\n": 6932,
    "s;\nAnd, ": 6933,
    "motion": 6934,
    "I pray you, ": 6935,
    "is't ": 6936,
    ", yet ": 6937,
    ": though": 6938,
    "ite ": 6939,
    "?\n\nNurse": 6940,
    "orn": 6941,
    "OF AUMERLE:\n": 6942,
    "rogu": 6943,
    " sir, ": 6944,
    "fiel": 6945,
    "SET:\n": 6946,
    "utmost ": 6947,
    "I never": 6948,
    "remember": 6949,
    "Thou hast ": 6950,
    "bal": 6951,
    "nor ": 6952,
    "talk": 6953,
    "spur": 6954,
    "est thou": 6955,
    "ator": 6956,
    "coward": 6957,
    "is, ": 6958,
    "embrace": 6959,
    "sometime ": 6960,
    "OMINIUS:\n": 6961,
    "VIRG": 6962,
    "current ": 6963,
    "\nShall ": 6964,
    ".\n\nCAPULET:\n": 6965,
    " with the ": 6966,
    "vy ": 6967,
    "tongue\n": 6968,
    "emper": 6969,
    "at him": 6970,
    "fair ": 6971,
    "Richmond": 6972,
    "that there ": 6973,
    "old\n": 6974,
    ".'": 6975,
    "Vaugh": 6976,
    "face": 6977,
    "Y": 6978,
    ":\nI had ": 6979,
    ":\nYour": 6980,
    "!\n\nLEONTES:\n": 6981,
    "good night": 6982,
    "In": 6983,
    "sepul": 6984,
    "deceiv": 6985,
    "ition": 6986,
    "letter": 6987,
    "mew": 6988,
    "omorrow": 6989,
    "famous ": 6990,
    "pe": 6991,
    "to bear": 6992,
    "er": 6993,
    "with that ": 6994,
    "image ": 6995,
    "parli": 6996,
    "LA": 6997,
    "'s son": 6998,
    "s?\n\nFirst ": 6999,
    " almost ": 7000,
    " him ": 7001,
    "utter": 7002,
    "will": 7003,
    "shame ": 7004,
    "leave": 7005,
    "herself": 7006,
    "bastard": 7007,
    ". S": 7008,
    "e to be ": 7009,
    "seven": 7010,
    "up and ": 7011,
    "of that ": 7012,
    "companion": 7013,
    "your t": 7014,
    " blood": 7015,
    "master": 7016,
    "ten": 7017,
    "since ": 7018,
    "vain": 7019,
    "!\n\nGLOUCESTER": 7020,
    " and the ": 7021,
    "kingdom": 7022,
    "!\nIf": 7023,
    "eather": 7024,
    " want": 7025,
    "\nAnd ": 7026,
    "t of ": 7027,
    "s-": 7028,
    "Thou": 7029,
    "ID": 7030,
    "lay the ": 7031,
    "are": 7032,
    " I": 7033,
    "utes ": 7034,
    "eace, ": 7035,
    ",\nWhilst ": 7036,
    "to-night": 7037,
    "looked ": 7038,
    "garden": 7039,
    "ranted ": 7040,
    ":\nE": 7041,
    "you and ": 7042,
    "was not ": 7043,
    "cun": 7044,
    "fatal": 7045,
    "fill": 7046,
    "shoulder": 7047,
    "he'll ": 7048,
    "es the ": 7049,
    "one,\n": 7050,
    "spok": 7051,
    "emon": 7052,
    "l": 7053,
    ": a": 7054,
    "RATCLIFF": 7055,
    "a man ": 7056,
    "s of the ": 7057,
    "For": 7058,
    "ask": 7059,
    "An": 7060,
    "call thee ": 7061,
    "renowned ": 7062,
    "William ": 7063,
    "unc": 7064,
    "our p": 7065,
    "little ": 7066,
    "HENR": 7067,
    "By ": 7068,
    "ipp": 7069,
    "\nAgainst ": 7070,
    "lemn": 7071,
    "thou wilt ": 7072,
    "had the ": 7073,
    "again": 7074,
    "how": 7075,
    ".\n\nROMEO:\n": 7076,
    "eless ": 7077,
    "with all ": 7078,
    "your g": 7079,
    "gave ": 7080,
    "Bohemia": 7081,
    "EDWARD I": 7082,
    "fellow, ": 7083,
    ",\nAre ": 7084,
    "your highness": 7085,
    "near": 7086,
    "base": 7087,
    "ta'": 7088,
    "weak": 7089,
    "AG": 7090,
    "shame": 7091,
    "?\nMy ": 7092,
    "men are ": 7093,
    ", how": 7094,
    "cause": 7095,
    "Bolingbrok": 7096,
    " cannot ": 7097,
    " for the ": 7098,
    "being the ": 7099,
    "s which": 7100,
    "Cominius": 7101,
    "and\n": 7102,
    "circumst": 7103,
    "content ": 7104,
    "called ": 7105,
    "trou": 7106,
    " sea": 7107,
    "with\n": 7108,
    "dd": 7109,
    "flow": 7110,
    "rist": 7111,
    ", and not ": 7112,
    "ry '": 7113,
    "is": 7114,
    "Ravenspur": 7115,
    "'s daughter": 7116,
    "as\n": 7117,
    "an hour": 7118,
    "es. ": 7119,
    "deck": 7120,
    "eld": 7121,
    " with a": 7122,
    "proph": 7123,
    "ord": 7124,
    "rule ": 7125,
    "sent ": 7126,
    " great ": 7127,
    "quiet ": 7128,
    "AUTOLYCUS:\n": 7129,
    "I dare ": 7130,
    "in him": 7131,
    "thee": 7132,
    " app": 7133,
    "scop": 7134,
    "your mother": 7135,
    "I wish": 7136,
    "lodg": 7137,
    "spo": 7138,
    " consul": 7139,
    "h, ": 7140,
    "a thing ": 7141,
    "these\n": 7142,
    ":\nG": 7143,
    "!\n\nROMEO:\n": 7144,
    "to keep": 7145,
    "promise": 7146,
    "you not ": 7147,
    ":\nWhen ": 7148,
    " my\n": 7149,
    "Jove's ": 7150,
    "WAR": 7151,
    "care": 7152,
    ". But ": 7153,
    "less": 7154,
    "erefor": 7155,
    "oo": 7156,
    "priest": 7157,
    "living": 7158,
    "suck": 7159,
    "! I": 7160,
    "!\n\nCORIOLANUS:\n": 7161,
    " battle": 7162,
    " company": 7163,
    "play ": 7164,
    " through": 7165,
    "\nThese ": 7166,
    "times": 7167,
    "take\n": 7168,
    "Give ": 7169,
    ". By ": 7170,
    "har": 7171,
    "?\n\nThird ": 7172,
    " heart ": 7173,
    " strik": 7174,
    "his": 7175,
    "TES": 7176,
    "? the ": 7177,
    "bed ": 7178,
    " mod": 7179,
    "lead": 7180,
    "talk'd ": 7181,
    "what's ": 7182,
    "LO": 7183,
    "IUS:\n": 7184,
    "told ": 7185,
    "probation": 7186,
    "irl": 7187,
    "Aufidius, ": 7188,
    "conduct ": 7189,
    "s,\nM": 7190,
    "arl": 7191,
    "S": 7192,
    "s on": 7193,
    "ke ": 7194,
    "See, ": 7195,
    "e.\n": 7196,
    " at the ": 7197,
    "K": 7198,
    "pri": 7199,
    " thou hast ": 7200,
    "gracious ": 7201,
    " thee to ": 7202,
    "six": 7203,
    "tun": 7204,
    ", by ": 7205,
    "ruthless ": 7206,
    "mall ": 7207,
    "back": 7208,
    "should have ": 7209,
    "ut ": 7210,
    " bloo": 7211,
    "depose": 7212,
    "soft": 7213,
    "wife is ": 7214,
    "we are ": 7215,
    ".\n\nAEdile": 7216,
    "ground ": 7217,
    ".\nThy ": 7218,
    " mortal": 7219,
    "black": 7220,
    "serve ": 7221,
    "see": 7222,
    "stro": 7223,
    "away ": 7224,
    "tell": 7225,
    ".\n\nVIRGIL": 7226,
    "s.\n\nANGELO:\n": 7227,
    " time ": 7228,
    ":\nWill ": 7229,
    "ward": 7230,
    " a little ": 7231,
    "old ": 7232,
    "uncle": 7233,
    "let it ": 7234,
    "ed and ": 7235,
    "should we ": 7236,
    "Upon the ": 7237,
    ",\nWhen ": 7238,
    "exec": 7239,
    "?\nIs ": 7240,
    ":\nThese ": 7241,
    "usation": 7242,
    "carri": 7243,
    "Angelo": 7244,
    " that we ": 7245,
    "ful": 7246,
    "pleasure ": 7247,
    "provid": 7248,
    "ing on": 7249,
    "FLORIZ": 7250,
    "when it ": 7251,
    "s\nWith": 7252,
    "Caes": 7253,
    "no more": 7254,
    "eaven ": 7255,
    "ing your": 7256,
    ",\nN": 7257,
    "advance": 7258,
    "alk": 7259,
    "please you, ": 7260,
    "y. ": 7261,
    "vok": 7262,
    "est ": 7263,
    "?\n\nCOMINIUS:\n": 7264,
    "Tush, ": 7265,
    "let her": 7266,
    ".\n\nSecond ": 7267,
    " this ": 7268,
    "nin": 7269,
    "mild": 7270,
    ";\nWho ": 7271,
    "ad": 7272,
    "JOH": 7273,
    " than the ": 7274,
    "you know": 7275,
    "to": 7276,
    "Rich": 7277,
    "charge ": 7278,
    "prepar": 7279,
    "down": 7280,
    "comm": 7281,
    "remembrance ": 7282,
    "old and ": 7283,
    "take my leave of you": 7284,
    "hath": 7285,
    "iment": 7286,
    "of him": 7287,
    "ieutenant": 7288,
    "it were ": 7289,
    "did\n": 7290,
    "BRAK": 7291,
    "?\n\nFLORIZEL": 7292,
    ": what ": 7293,
    "an ": 7294,
    "I pray thee, ": 7295,
    ",\nI am": 7296,
    "bloody ": 7297,
    ",\nBecause ": 7298,
    "heart is ": 7299,
    ".\n\nBRAKENBURY": 7300,
    "urn": 7301,
    "AUFIDIUS:\n": 7302,
    "you in": 7303,
    " sc": 7304,
    "dec": 7305,
    ":\nPeace, ": 7306,
    "e: ": 7307,
    " thus": 7308,
    "Henry": 7309,
    "Come on, ": 7310,
    "do you ": 7311,
    "ELBOW": 7312,
    "do't ": 7313,
    "ty and ": 7314,
    "iron": 7315,
    "mal": 7316,
    "o'er": 7317,
    "for him": 7318,
    " tim": 7319,
    ",\nWhat ": 7320,
    "Doth": 7321,
    "rew": 7322,
    "That, ": 7323,
    ":\n": 7324,
    "task": 7325,
    "see, ": 7326,
    "s are ": 7327,
    "to't ": 7328,
    ", ": 7329,
    "Flor": 7330,
    "princes ": 7331,
    "er of ": 7332,
    "mann": 7333,
    "Clarence, ": 7334,
    "TYB": 7335,
    "a little ": 7336,
    "not\n": 7337,
    "find ": 7338,
    "warm": 7339,
    "owl": 7340,
    "ob": 7341,
    "irc": 7342,
    "s,\nWhich": 7343,
    "y\nIs ": 7344,
    ".\n\nYORK": 7345,
    "ing b": 7346,
    "fore, ": 7347,
    "hum": 7348,
    "than ": 7349,
    ". H": 7350,
    ".\nYou": 7351,
    "soo": 7352,
    "in thy ": 7353,
    "aint ": 7354,
    "quoth": 7355,
    "begin": 7356,
    "nail": 7357,
    "nard": 7358,
    "post ": 7359,
    " I ": 7360,
    "gates": 7361,
    "told me ": 7362,
    " brother ": 7363,
    "sword, ": 7364,
    ".\n\nCAMILLO:\n": 7365,
    ":\nAll": 7366,
    "hath he ": 7367,
    "inous ": 7368,
    "follow ": 7369,
    "ance, ": 7370,
    "well-": 7371,
    " happy ": 7372,
    "Tybal": 7373,
    ":\nMadam": 7374,
    "of": 7375,
    "er-": 7376,
    " boy": 7377,
    "Lo": 7378,
    "lives ": 7379,
    "no": 7380,
    "dance": 7381,
    "muster": 7382,
    "us to ": 7383,
    " after": 7384,
    "come\n": 7385,
    "e,\nM": 7386,
    "me.\n": 7387,
    ". Give me ": 7388,
    " fi": 7389,
    "it is not ": 7390,
    "is as ": 7391,
    "of the\n": 7392,
    "princ": 7393,
    "gla": 7394,
    "childr": 7395,
    "oft ": 7396,
    " duk": 7397,
    "steed": 7398,
    "?\n\n": 7399,
    "!\nAll": 7400,
    "Well, ": 7401,
    "etter ": 7402,
    "esh": 7403,
    "hat!": 7404,
    "ance ": 7405,
    " such ": 7406,
    "remain": 7407,
    "err": 7408,
    "batt": 7409,
    "see him ": 7410,
    "; then": 7411,
    "out\n": 7412,
    "your b": 7413,
    "deter": 7414,
    "ly": 7415,
    ":\nThe one ": 7416,
    "e'er ": 7417,
    "; then ": 7418,
    "patient": 7419,
    " p": 7420,
    "I w": 7421,
    "\nWould ": 7422,
    "ORTENSIO:\n": 7423,
    "belly ": 7424,
    "do I ": 7425,
    "lack": 7426,
    "state and ": 7427,
    "istres": 7428,
    "orne": 7429,
    "quit ": 7430,
    "h": 7431,
    "e.\n\nClown": 7432,
    "sw": 7433,
    "Let us ": 7434,
    "love and ": 7435,
    ".\n\nPETER": 7436,
    ";\nAnd, ": 7437,
    " post": 7438,
    "conj": 7439,
    "?\n\nQUEEN MARGARET": 7440,
    " she is ": 7441,
    "!\nBut ": 7442,
    "in b": 7443,
    "-faced ": 7444,
    "ll": 7445,
    "in our": 7446,
    "bla": 7447,
    "loud": 7448,
    "Well, well, ": 7449,
    "report": 7450,
    "summer": 7451,
    "will make ": 7452,
    "Marcius, ": 7453,
    "gg": 7454,
    " with his ": 7455,
    "reason": 7456,
    "armour": 7457,
    "HENRY BOLING": 7458,
    "supp": 7459,
    "spoke ": 7460,
    "hadst ": 7461,
    " bid ": 7462,
    "ignorance": 7463,
    " that\n": 7464,
    "rise ": 7465,
    "lights ": 7466,
    "rest": 7467,
    "'ll be ": 7468,
    "awhile": 7469,
    " come, ": 7470,
    "tw": 7471,
    "ers ": 7472,
    "One ": 7473,
    ", and so ": 7474,
    "ppear": 7475,
    "as I ": 7476,
    "ift ": 7477,
    "friends ": 7478,
    "that my ": 7479,
    "sabel": 7480,
    "bid me ": 7481,
    "cian": 7482,
    "prettiest ": 7483,
    "AULINA": 7484,
    "arp": 7485,
    " m": 7486,
    "thee to ": 7487,
    "yea": 7488,
    "eye\n": 7489,
    "ortens": 7490,
    "AUF": 7491,
    "rap": 7492,
    "he not ": 7493,
    "but\n": 7494,
    "; we ": 7495,
    " in": 7496,
    "wife's ": 7497,
    "Henry the ": 7498,
    "ies ": 7499,
    "the gods ": 7500,
    ", like ": 7501,
    "same ": 7502,
    "sword ": 7503,
    "graced ": 7504,
    ". O": 7505,
    "in Vienna": 7506,
    "HENRY BOL": 7507,
    " presence": 7508,
    "sant ": 7509,
    ";\nHis ": 7510,
    "song": 7511,
    "wedd": 7512,
    "enef": 7513,
    ".\n\nQUEEN MARGARET": 7514,
    "'re ": 7515,
    ": therefore, ": 7516,
    ", when ": 7517,
    "May ": 7518,
    "ribun": 7519,
    ";\nN": 7520,
    "service": 7521,
    "loved": 7522,
    " a king": 7523,
    ".\nCome, ": 7524,
    "pi": 7525,
    "st not ": 7526,
    "grat": 7527,
    "tier": 7528,
    "OLIX": 7529,
    "ardon ": 7530,
    " plain": 7531,
    ";\nSo ": 7532,
    "whilst ": 7533,
    "means to ": 7534,
    "simple ": 7535,
    "ALTHASAR": 7536,
    "prayer": 7537,
    "?\n\nVOLUMNIA:\n": 7538,
    "as well": 7539,
    "; be ": 7540,
    "word": 7541,
    " wor": 7542,
    ":\nYou have ": 7543,
    " s": 7544,
    "y, to ": 7545,
    "not": 7546,
    "I will not ": 7547,
    "your love ": 7548,
    "; I'll ": 7549,
    ". Now": 7550,
    " I did ": 7551,
    "prof": 7552,
    "she was ": 7553,
    "e.\n\nESCALUS:\n": 7554,
    "ul": 7555,
    "?\n\nSTANLEY": 7556,
    "charm": 7557,
    "this same ": 7558,
    " too ": 7559,
    "lack, ": 7560,
    "?\n\nClown": 7561,
    "traitors ": 7562,
    "account ": 7563,
    "Camillo": 7564,
    "host": 7565,
    "devil": 7566,
    "home": 7567,
    "wounded": 7568,
    "vers": 7569,
    "secret ": 7570,
    "GH": 7571,
    " fortun": 7572,
    "-tre": 7573,
    "You have ": 7574,
    "cro": 7575,
    "cheap": 7576,
    "Lady ": 7577,
    "peace, ": 7578,
    "physic": 7579,
    " book": 7580,
    "BRUT": 7581,
    "life?\n\n": 7582,
    "arewell": 7583,
    "pose ": 7584,
    ". F": 7585,
    "regal": 7586,
    "let him": 7587,
    " fellow": 7588,
    "bran": 7589,
    "fice": 7590,
    "marry": 7591,
    "wrong": 7592,
    "numb": 7593,
    "wise ": 7594,
    ":\nIt is ": 7595,
    ", now": 7596,
    "rum": 7597,
    ":\nThere is ": 7598,
    "; my ": 7599,
    "way, ": 7600,
    "doubt": 7601,
    "itiff": 7602,
    "know his ": 7603,
    "friends,\n": 7604,
    "st": 7605,
    "outra": 7606,
    "CAPULET": 7607,
    "es it ": 7608,
    "ou": 7609,
    "rock": 7610,
    "Shor": 7611,
    "TAN": 7612,
    " so ": 7613,
    "ord ": 7614,
    "grieve ": 7615,
    " you, sir, ": 7616,
    "cut off": 7617,
    "it must ": 7618,
    "employ": 7619,
    "agg": 7620,
    "name is ": 7621,
    "dur": 7622,
    "night's ": 7623,
    "wise": 7624,
    " men are ": 7625,
    ",\nHere ": 7626,
    "life, ": 7627,
    "rescu": 7628,
    "by your ": 7629,
    "FRIAR": 7630,
    "lam": 7631,
    "e\nBut ": 7632,
    "LEWIS": 7633,
    "Stand ": 7634,
    " sovereign": 7635,
    "blow": 7636,
    "sur": 7637,
    ", though": 7638,
    "peace ": 7639,
    "danger": 7640,
    "ward, ": 7641,
    "th": 7642,
    "; I ": 7643,
    " gentleman": 7644,
    "that thy ": 7645,
    "e to ": 7646,
    "Lewis ": 7647,
    "IR STEPHEN SC": 7648,
    "sovereign ": 7649,
    "of war": 7650,
    "es, ": 7651,
    "like an ": 7652,
    "rail": 7653,
    "so he ": 7654,
    "ant, ": 7655,
    "N": 7656,
    ":\nI'll ": 7657,
    "ld ": 7658,
    "Jup": 7659,
    " bring ": 7660,
    "hate the ": 7661,
    "?\nS": 7662,
    "MARCIUS:\n": 7663,
    "IS": 7664,
    ".\n\nCOMINIUS:\n": 7665,
    "ying ": 7666,
    "measure ": 7667,
    "irst, ": 7668,
    "betw": 7669,
    "rem": 7670,
    "I tell ": 7671,
    "can do ": 7672,
    "birth": 7673,
    "cer": 7674,
    "for this ": 7675,
    " plea": 7676,
    "number": 7677,
    "raised ": 7678,
    "ho": 7679,
    ",\nTo see ": 7680,
    "consent": 7681,
    "pea": 7682,
    "bud": 7683,
    "to speak": 7684,
    " secre": 7685,
    "'em": 7686,
    " do ": 7687,
    "riev": 7688,
    "the king ": 7689,
    "ous ": 7690,
    "?\n\nB": 7691,
    ", my lord": 7692,
    "Let him be ": 7693,
    "HENRY BOLINGBROKE:\n": 7694,
    "charge": 7695,
    ", sir, ": 7696,
    ":\nBe ": 7697,
    "ANTIGON": 7698,
    "MONTAGUE:\n": 7699,
    "red": 7700,
    "cousin ": 7701,
    " before ": 7702,
    " a w": 7703,
    " I must ": 7704,
    "sensi": 7705,
    "letters ": 7706,
    "ELB": 7707,
    " unto ": 7708,
    "despite ": 7709,
    "and un": 7710,
    "together, ": 7711,
    "painted ": 7712,
    " born": 7713,
    ".\n\nKING LEWIS XI": 7714,
    " hold": 7715,
    "swear": 7716,
    "still ": 7717,
    "ve's ": 7718,
    " at ": 7719,
    "son, ": 7720,
    " spirit": 7721,
    "gat": 7722,
    "ingly ": 7723,
    "whether ": 7724,
    "s:": 7725,
    "a wh": 7726,
    ",\nWhen he ": 7727,
    " meet ": 7728,
    "grow": 7729,
    "Kill": 7730,
    "Ver": 7731,
    "smen": 7732,
    "UT": 7733,
    "foolish": 7734,
    "pack": 7735,
    "ded ": 7736,
    "early ": 7737,
    "which he ": 7738,
    "hot ": 7739,
    "e'er": 7740,
    "mercy, ": 7741,
    ":\nLeave ": 7742,
    "DUKE OF YORK": 7743,
    "Why, then, ": 7744,
    "esseng": 7745,
    "had": 7746,
    ".\n\nFirst Murderer": 7747,
    " put": 7748,
    "swor": 7749,
    "ado": 7750,
    "fra": 7751,
    "those ": 7752,
    "e,\nAs ": 7753,
    "fif": 7754,
    "let": 7755,
    "years,\n": 7756,
    "EX": 7757,
    "cheek": 7758,
    "umbly ": 7759,
    "righ": 7760,
    "rey ": 7761,
    "too": 7762,
    "to have ": 7763,
    "umn": 7764,
    "princely ": 7765,
    "youth": 7766,
    "mean": 7767,
    "welcome": 7768,
    ", for": 7769,
    "hard ": 7770,
    ": p": 7771,
    " black": 7772,
    "imprisonment": 7773,
    "short ": 7774,
    "you will": 7775,
    "earth": 7776,
    "overeign": 7777,
    " of this ": 7778,
    "dir": 7779,
    "art": 7780,
    " talk": 7781,
    "prophes": 7782,
    " thy ": 7783,
    " comfort ": 7784,
    "suit ": 7785,
    "already": 7786,
    ".\n\nGRUMIO:\n": 7787,
    "From": 7788,
    "it the ": 7789,
    "VI": 7790,
    "Des": 7791,
    "cord": 7792,
    "urged ": 7793,
    "ed": 7794,
    "me in my ": 7795,
    "eci": 7796,
    "va": 7797,
    "treasure ": 7798,
    " in our": 7799,
    " dar": 7800,
    ".\n": 7801,
    "memor": 7802,
    "apster": 7803,
    "forbid": 7804,
    "behind": 7805,
    "position": 7806,
    "gre": 7807,
    "Har": 7808,
    "with this ": 7809,
    " sword": 7810,
    "ause": 7811,
    ".\nTh": 7812,
    "ardon me, ": 7813,
    "Q": 7814,
    "in prison": 7815,
    "aid": 7816,
    "fir": 7817,
    "pop": 7818,
    ",\nD": 7819,
    "Romeo's ": 7820,
    "clin": 7821,
    "\nCan": 7822,
    "ought": 7823,
    "Mont": 7824,
    "owbra": 7825,
    "you g": 7826,
    "till ": 7827,
    "your will": 7828,
    "ing on the ": 7829,
    "lance": 7830,
    "further": 7831,
    " on him": 7832,
    "were his ": 7833,
    "s\nThe ": 7834,
    ".\n\nA P": 7835,
    "consci": 7836,
    "mem": 7837,
    ": '": 7838,
    "ishop": 7839,
    "Tit": 7840,
    "I mean": 7841,
    "leav": 7842,
    "gi": 7843,
    "eem": 7844,
    "ate ": 7845,
    "end my ": 7846,
    "I speak": 7847,
    "litt": 7848,
    "pa": 7849,
    "oot": 7850,
    "fruit": 7851,
    "RINCE:\n": 7852,
    "s have ": 7853,
    "pul": 7854,
    "kings ": 7855,
    " per": 7856,
    "yet, ": 7857,
    "She ": 7858,
    "artic": 7859,
    "argu": 7860,
    "father's ": 7861,
    "Friar ": 7862,
    " they have ": 7863,
    ",\nWhose ": 7864,
    "true ": 7865,
    "valiant ": 7866,
    "mea": 7867,
    "tender": 7868,
    "why ": 7869,
    "Comin": 7870,
    "tail": 7871,
    " I will ": 7872,
    ".\n\nAUFIDIUS:\n": 7873,
    " banishment": 7874,
    " a s": 7875,
    "let him ": 7876,
    ":\nAn": 7877,
    "esid": 7878,
    "public": 7879,
    ": you": 7880,
    "spend ": 7881,
    ", farewell": 7882,
    "cried ": 7883,
    "ISAB": 7884,
    ".\n\nCLAUDIO:\n": 7885,
    " bosom": 7886,
    "witness ": 7887,
    "!\n\nLADY CAPULET": 7888,
    "merry ": 7889,
    "sail": 7890,
    "distres": 7891,
    "lover": 7892,
    ", is ": 7893,
    ":\nHow now": 7894,
    "lamentable ": 7895,
    "made ": 7896,
    "to this ": 7897,
    "s to the ": 7898,
    ":\nI'll": 7899,
    "ne'er": 7900,
    "Of": 7901,
    "it;\nAnd ": 7902,
    " in my ": 7903,
    "Upon my ": 7904,
    "clam": 7905,
    "SICINIUS:\n": 7906,
    "wolf": 7907,
    "time of ": 7908,
    "De": 7909,
    "it was ": 7910,
    "oman": 7911,
    "IR": 7912,
    " on": 7913,
    "intent": 7914,
    "\nThe ": 7915,
    "?\n\nBRUTUS:\n": 7916,
    "LAD": 7917,
    "exile": 7918,
    "here\n": 7919,
    "Volsce": 7920,
    "rust ": 7921,
    ":\nP": 7922,
    "voices": 7923,
    "ter than": 7924,
    "your m": 7925,
    "humour": 7926,
    "ing s": 7927,
    " sub": 7928,
    "! I ": 7929,
    "perceive ": 7930,
    "eyes, ": 7931,
    "; though": 7932,
    "QUEEN MARGARET:\n": 7933,
    "sleep": 7934,
    "Aumerle": 7935,
    "s ": 7936,
    "this the ": 7937,
    "thou know": 7938,
    ":\nCome, come, ": 7939,
    "beyond ": 7940,
    "s. ": 7941,
    "for us": 7942,
    ":\nHark": 7943,
    "!\n\nSecond ": 7944,
    "leave to ": 7945,
    "ORTEN": 7946,
    "all a": 7947,
    "ve, ": 7948,
    ";\nAnd ": 7949,
    "aster ": 7950,
    " free ": 7951,
    "JOHN OF ": 7952,
    "goes ": 7953,
    "thou didst ": 7954,
    "bly ": 7955,
    "Master ": 7956,
    "\nTo ": 7957,
    "open ": 7958,
    "feast": 7959,
    "urder": 7960,
    ",\n'": 7961,
    "whence ": 7962,
    "thou hast ": 7963,
    "will be ": 7964,
    "een ": 7965,
    "sell": 7966,
    "No": 7967,
    "great ": 7968,
    "fig": 7969,
    "3 ": 7970,
    "John ": 7971,
    "given ": 7972,
    "ince ": 7973,
    "stick": 7974,
    " sh": 7975,
    "violent ": 7976,
    "yon": 7977,
    "DUKE VINC": 7978,
    "from the ": 7979,
    "lords, ": 7980,
    "TY": 7981,
    "infection": 7982,
    "Rut": 7983,
    "out of": 7984,
    "'t ": 7985,
    "EGORY": 7986,
    "-in-": 7987,
    "SET": 7988,
    "fer": 7989,
    "lod": 7990,
    "weal": 7991,
    " sound": 7992,
    "AS": 7993,
    "judg": 7994,
    "I know not ": 7995,
    "umber": 7996,
    "aged ": 7997,
    "trea": 7998,
    " coun": 7999,
    "'t be ": 8000,
    "TESBY": 8001,
    " officer": 8002,
    "matter": 8003,
    "Her": 8004,
    "easy ": 8005,
    ":\nHe's ": 8006,
    "y,\nTo ": 8007,
    "to be ": 8008,
    "sem": 8009,
    "ure ": 8010,
    "dy ": 8011,
    "eed, ": 8012,
    "'d and ": 8013,
    "redeem": 8014,
    "we do ": 8015,
    "than the ": 8016,
    "the": 8017,
    ";\nThat ": 8018,
    "may, ": 8019,
    "e,\nTo ": 8020,
    ".\n\nGLOUCESTER:\n\n": 8021,
    "So, ": 8022,
    "act": 8023,
    "grave": 8024,
    "would make ": 8025,
    "ower ": 8026,
    "time ": 8027,
    "ken": 8028,
    "dest": 8029,
    "in good ": 8030,
    " sal": 8031,
    "quick": 8032,
    ",\nBefore ": 8033,
    "oop": 8034,
    " might ": 8035,
    "I must be ": 8036,
    "ANN": 8037,
    "ing so ": 8038,
    "adieu": 8039,
    "stoop": 8040,
    "When ": 8041,
    "es,\nAnd ": 8042,
    " inno": 8043,
    "have, ": 8044,
    "negle": 8045,
    "ervice": 8046,
    "yet un": 8047,
    "encoun": 8048,
    "vish": 8049,
    "bit": 8050,
    "dead, ": 8051,
    "room": 8052,
    "with such": 8053,
    "slip": 8054,
    "LEWIS X": 8055,
    " feast": 8056,
    "'s death": 8057,
    "thine ": 8058,
    "before him": 8059,
    "hearing ": 8060,
    "Who ": 8061,
    "led ": 8062,
    " appear": 8063,
    "smil": 8064,
    ",\nG": 8065,
    "I believe ": 8066,
    ", to ": 8067,
    "I bear": 8068,
    "ular": 8069,
    "counter": 8070,
    "Wherein": 8071,
    "give us ": 8072,
    "fault ": 8073,
    "ee, ": 8074,
    " in the ": 8075,
    "mind": 8076,
    "protector": 8077,
    ":\nM": 8078,
    "HENRY PERCY": 8079,
    "something": 8080,
    "th Citizen": 8081,
    " put ": 8082,
    "dep": 8083,
    " w": 8084,
    "sweet": 8085,
    "blood": 8086,
    "condemn": 8087,
    "which": 8088,
    "Petru": 8089,
    "lu": 8090,
    "e?\n\nC": 8091,
    "Tar": 8092,
    " common": 8093,
    "they would ": 8094,
    "ges ": 8095,
    "Margaret ": 8096,
    "remember ": 8097,
    "accusation": 8098,
    "I do not ": 8099,
    "ONE:\n": 8100,
    "worl": 8101,
    "you, sir": 8102,
    "w": 8103,
    "it. ": 8104,
    "Therefore, ": 8105,
    "TANLEY": 8106,
    " they\n": 8107,
    "us ": 8108,
    "unnatural": 8109,
    "voc": 8110,
    ":\nThe ": 8111,
    "Vienna": 8112,
    " stand": 8113,
    ",\nThen": 8114,
    "Once more, ": 8115,
    " you": 8116,
    "wide ": 8117,
    "Richmon": 8118,
    "favour": 8119,
    "stop": 8120,
    "deput": 8121,
    " good ": 8122,
    " along": 8123,
    "Ay": 8124,
    "O ": 8125,
    "humbly ": 8126,
    "tread ": 8127,
    "EXTON": 8128,
    "thank": 8129,
    "Oxford ": 8130,
    "So ": 8131,
    "as, ": 8132,
    "encounter": 8133,
    "ss ": 8134,
    " to thy ": 8135,
    "with his ": 8136,
    "gone, and ": 8137,
    "?\n\nP": 8138,
    "e,\nFor": 8139,
    "him": 8140,
    "enty ": 8141,
    "for your ": 8142,
    ", that ": 8143,
    "entle ": 8144,
    "are the ": 8145,
    "keep you": 8146,
    ".\n\nMENENIUS:\n": 8147,
    "es, to ": 8148,
    " dist": 8149,
    "s\nThan": 8150,
    "charged ": 8151,
    "ive": 8152,
    "thou dost ": 8153,
    "cannot be": 8154,
    ",\nO": 8155,
    "'d him": 8156,
    "I will go ": 8157,
    " to": 8158,
    " honour": 8159,
    "long as ": 8160,
    "design": 8161,
    ". How": 8162,
    "I can": 8163,
    " cap": 8164,
    " mean": 8165,
    "I am": 8166,
    "give thee ": 8167,
    "execut": 8168,
    "I will ": 8169,
    "put": 8170,
    "in my ": 8171,
    " d": 8172,
    "ve ": 8173,
    "of death": 8174,
    "over ": 8175,
    "ham": 8176,
    ".'\n\n": 8177,
    "AB": 8178,
    "Your ": 8179,
    "Away": 8180,
    "UM": 8181,
    "by him": 8182,
    "injur": 8183,
    "Larti": 8184,
    ",\nNor ": 8185,
    "Laur": 8186,
    ".\n\nSecond Citizen": 8187,
    "s of ": 8188,
    "I am go": 8189,
    ".\n\nDUKE OF AUMERLE:\n": 8190,
    "s.\n\nSICINIUS:\n": 8191,
    "him up": 8192,
    "Put ": 8193,
    "If any ": 8194,
    "ic": 8195,
    " he ": 8196,
    " sweet": 8197,
    "small ": 8198,
    "go, ": 8199,
    "ARD I": 8200,
    " by the ": 8201,
    "hat's the ": 8202,
    "or ": 8203,
    "ris": 8204,
    "charity": 8205,
    "for't": 8206,
    " a pre": 8207,
    "head": 8208,
    "prosper": 8209,
    "I had rather ": 8210,
    "must ": 8211,
    "Marcius ": 8212,
    "shall not be ": 8213,
    "quarter": 8214,
    " sp": 8215,
    "e.\n\nFirst ": 8216,
    "cent": 8217,
    "shake ": 8218,
    "ct": 8219,
    "have the ": 8220,
    "lexion": 8221,
    "came to ": 8222,
    " part": 8223,
    "Harry ": 8224,
    " mar": 8225,
    "too much": 8226,
    "ta'en": 8227,
    " the duke ": 8228,
    "thrice ": 8229,
    "next": 8230,
    "wish": 8231,
    "began": 8232,
    "NORFOL": 8233,
    "all the ": 8234,
    "womb": 8235,
    "bj": 8236,
    "hold\n": 8237,
    "ay ": 8238,
    "that is ": 8239,
    " o' the ": 8240,
    "provok": 8241,
    "erv": 8242,
    "Great ": 8243,
    "dea": 8244,
    "Nat": 8245,
    " sail": 8246,
    "? O, ": 8247,
    ":\nWell ": 8248,
    ":\nI think": 8249,
    "ad ": 8250,
    " some other": 8251,
    "serves ": 8252,
    " must": 8253,
    "compas": 8254,
    "ct ": 8255,
    "Nature ": 8256,
    "ive ": 8257,
    "ly ": 8258,
    "tise": 8259,
    "let this ": 8260,
    "ORTENS": 8261,
    "hearts ": 8262,
    ":\nAll ": 8263,
    "Becomes ": 8264,
    "'ll ": 8265,
    "E": 8266,
    "curse": 8267,
    "Sirrah, ": 8268,
    ":\nHere ": 8269,
    "itut": 8270,
    " comfort": 8271,
    "Edward ": 8272,
    "LEWIS ": 8273,
    "sil": 8274,
    "loss": 8275,
    "creature": 8276,
    "a villain": 8277,
    "let my ": 8278,
    "of, ": 8279,
    "remedy": 8280,
    "Because ": 8281,
    "ork": 8282,
    " I do ": 8283,
    "tend": 8284,
    " makes ": 8285,
    " he had ": 8286,
    "great": 8287,
    "sea": 8288,
    "this, ": 8289,
    " wretch": 8290,
    "very well": 8291,
    "other s": 8292,
    ".\n\nL": 8293,
    "BER": 8294,
    "what": 8295,
    ":\nN": 8296,
    "There is ": 8297,
    "Stay ": 8298,
    "part": 8299,
    " in thy ": 8300,
    "DUKE VINCENTIO:\n": 8301,
    "follow'd ": 8302,
    "EONT": 8303,
    "queen ": 8304,
    "Geor": 8305,
    "honour ": 8306,
    "e to the ": 8307,
    "! What ": 8308,
    "idle ": 8309,
    "methink": 8310,
    "lo": 8311,
    "ent to ": 8312,
    " together": 8313,
    "; w": 8314,
    "anctuar": 8315,
    "air": 8316,
    "any ": 8317,
    " h": 8318,
    "request, ": 8319,
    "peril": 8320,
    "up, ": 8321,
    "adver": 8322,
    " condem": 8323,
    " of him": 8324,
    "oldiers ": 8325,
    "me from the ": 8326,
    "Gloucester's death": 8327,
    "guilty ": 8328,
    "proceed": 8329,
    "set": 8330,
    "ences ": 8331,
    " more ": 8332,
    "dissol": 8333,
    "?\n\nDUKE OF YORK": 8334,
    "morn": 8335,
    "y-": 8336,
    "floo": 8337,
    "servant ": 8338,
    "fore": 8339,
    "at all": 8340,
    "turns ": 8341,
    "Thursday ": 8342,
    "ness": 8343,
    "friends, ": 8344,
    "success": 8345,
    ".\nNow, ": 8346,
    "worst ": 8347,
    ";\nYou": 8348,
    "knife ": 8349,
    "Pompey": 8350,
    "laudi": 8351,
    "mayor": 8352,
    "od": 8353,
    "noon": 8354,
    "nim": 8355,
    "book": 8356,
    "dog": 8357,
    "for ever": 8358,
    " them": 8359,
    "Al": 8360,
    "both": 8361,
    "ometime ": 8362,
    "OPS": 8363,
    ".\n\nPERDIT": 8364,
    "ces": 8365,
    ",\nAnd take ": 8366,
    " to ": 8367,
    " till": 8368,
    "in this ": 8369,
    " her ": 8370,
    "liege, ": 8371,
    "night": 8372,
    "KING LEWIS XI": 8373,
    "now ": 8374,
    "long ": 8375,
    "y; ": 8376,
    " which ": 8377,
    "of all": 8378,
    "NORTHUM": 8379,
    ":\nYes, ": 8380,
    "groan": 8381,
    "TIUS:\n": 8382,
    " said, ": 8383,
    "Without ": 8384,
    "give me ": 8385,
    "s.\n\nGLOUCESTER": 8386,
    " thing": 8387,
    "cursed ": 8388,
    "Clarence": 8389,
    "my\n": 8390,
    "master ": 8391,
    "full ": 8392,
    "instru": 8393,
    " it ": 8394,
    "wont to ": 8395,
    "QUEEN EL": 8396,
    "in such": 8397,
    "see ": 8398,
    "agon": 8399,
    "s of their": 8400,
    ";\nOne ": 8401,
    "at my ": 8402,
    "letter ": 8403,
    " 'em": 8404,
    "yself": 8405,
    "Bucking": 8406,
    "LAR": 8407,
    "Fie, ": 8408,
    ". To ": 8409,
    "feel": 8410,
    "ellow": 8411,
    "s.\n\nROMEO:\n": 8412,
    " God ": 8413,
    "in vain": 8414,
    " from": 8415,
    "made me ": 8416,
    "corrupt ": 8417,
    " court": 8418,
    " of": 8419,
    "imprison": 8420,
    " therefore, ": 8421,
    "me; ": 8422,
    "rought ": 8423,
    "while": 8424,
    "'st not ": 8425,
    "Be": 8426,
    "dream": 8427,
    "bott": 8428,
    "Tell": 8429,
    "ru": 8430,
    ": this ": 8431,
    "Their ": 8432,
    "cut ": 8433,
    "CIUS:\n": 8434,
    ":\nYour ": 8435,
    "fell": 8436,
    "hold ": 8437,
    " attend ": 8438,
    "at once": 8439,
    "of men": 8440,
    "Mercut": 8441,
    "e\nOf": 8442,
    "glor": 8443,
    " by ": 8444,
    "liberty": 8445,
    "praise ": 8446,
    "Do not ": 8447,
    "their ": 8448,
    "churchy": 8449,
    "ung": 8450,
    "G": 8451,
    " fortune ": 8452,
    "! for": 8453,
    "presently": 8454,
    "kin": 8455,
    " sad": 8456,
    "direct ": 8457,
    "drown": 8458,
    "rat": 8459,
    "ONTAGU": 8460,
    "hat\n": 8461,
    "il, ": 8462,
    "fairest ": 8463,
    "he will": 8464,
    "ISTR": 8465,
    "There ": 8466,
    "! you": 8467,
    "oun": 8468,
    "'d, ": 8469,
    "reg": 8470,
    "end to ": 8471,
    "Mercutio": 8472,
    " groan": 8473,
    "s.\n\nFirst ": 8474,
    "selv": 8475,
    "uns": 8476,
    ",\nWhich": 8477,
    " street": 8478,
    "stuff": 8479,
    " not\n": 8480,
    "ous, ": 8481,
    "revol": 8482,
    "ense": 8483,
    "estimon": 8484,
    "guess ": 8485,
    "present ": 8486,
    "when he ": 8487,
    "childish": 8488,
    "? O": 8489,
    " place ": 8490,
    "grav": 8491,
    "challenge ": 8492,
    "a m": 8493,
    "s with ": 8494,
    " want ": 8495,
    "DUKE ": 8496,
    "CAPUL": 8497,
    "vil": 8498,
    "when I ": 8499,
    "ancient ": 8500,
    "gh": 8501,
    "show'd ": 8502,
    "di": 8503,
    "star": 8504,
    " adversar": 8505,
    "a mon": 8506,
    ":\nYou are ": 8507,
    "uncle ": 8508,
    "ended ": 8509,
    "s; but ": 8510,
    "VOLUM": 8511,
    "scatter": 8512,
    "e, that ": 8513,
    "ull": 8514,
    "?\n\nMARCIUS:\n": 8515,
    " subject ": 8516,
    ":\nThere's ": 8517,
    "do it": 8518,
    "'d my ": 8519,
    "ouldst ": 8520,
    "Edward's ": 8521,
    "joy and ": 8522,
    "do you think": 8523,
    "had not ": 8524,
    "have you ": 8525,
    "oes ": 8526,
    "ber ": 8527,
    "irect ": 8528,
    "offer": 8529,
    "JULIET": 8530,
    "ital": 8531,
    " home ": 8532,
    "hang": 8533,
    "elf": 8534,
    "justice": 8535,
    "desc": 8536,
    "mongst ": 8537,
    "s, he ": 8538,
    "take him": 8539,
    "EY": 8540,
    "unt ": 8541,
    "liver ": 8542,
    "scar": 8543,
    "jest ": 8544,
    "counsel": 8545,
    "hollow": 8546,
    "integr": 8547,
    ".\n\nCLARENCE:\n": 8548,
    "ornament": 8549,
    "it, ": 8550,
    "land, ": 8551,
    "lay": 8552,
    " hadst ": 8553,
    ".\n\nSICINIUS:\n": 8554,
    "loyal": 8555,
    "How now": 8556,
    "He's ": 8557,
    "gall": 8558,
    "olour": 8559,
    " peop": 8560,
    ", sir": 8561,
    "person": 8562,
    "ele": 8563,
    "banished": 8564,
    "crook": 8565,
    "urnish": 8566,
    "-in-law": 8567,
    "there": 8568,
    "ness to ": 8569,
    " by my ": 8570,
    "awd, ": 8571,
    "attend ": 8572,
    "ecause ": 8573,
    "my good ": 8574,
    " condition": 8575,
    "whil": 8576,
    "virg": 8577,
    "!\n\nC": 8578,
    "wrath": 8579,
    "breath": 8580,
    " bar": 8581,
    "ub": 8582,
    ":\nIn ": 8583,
    ".\n\nLORD ROSS:\n": 8584,
    "den": 8585,
    "a st": 8586,
    "es ": 8587,
    "many ": 8588,
    "venge": 8589,
    "ity,\n": 8590,
    "Never": 8591,
    "courte": 8592,
    ":\nD": 8593,
    "lean": 8594,
    " we ": 8595,
    "ourish": 8596,
    "oil": 8597,
    " counsel": 8598,
    "s!": 8599,
    "Is't ": 8600,
    "ye ": 8601,
    "Juliet ": 8602,
    "e;\nThe ": 8603,
    "done.\n\n": 8604,
    "off": 8605,
    "ead ": 8606,
    "faith, ": 8607,
    "ousin": 8608,
    "order": 8609,
    "her, ": 8610,
    "Lond": 8611,
    "window": 8612,
    " such a": 8613,
    "They are ": 8614,
    " a t": 8615,
    "itness ": 8616,
    "Par": 8617,
    "take my ": 8618,
    "My gracious ": 8619,
    "gli": 8620,
    "Kathar": 8621,
    "ipe ": 8622,
    "one, ": 8623,
    "e,\nMy ": 8624,
    "ence ": 8625,
    "fair c": 8626,
    "KING RICHARD III": 8627,
    "satis": 8628,
    "devise ": 8629,
    ".\n\nLUCIO:\n": 8630,
    "I come ": 8631,
    "o ": 8632,
    "thoughts ": 8633,
    "gy": 8634,
    "ill ": 8635,
    "usb": 8636,
    "ight, ": 8637,
    "succ": 8638,
    "year": 8639,
    "met": 8640,
    "le ": 8641,
    "El": 8642,
    "day, ": 8643,
    "purpose ": 8644,
    "ont": 8645,
    " will ": 8646,
    "but": 8647,
    "mat": 8648,
    "y the ": 8649,
    "did, ": 8650,
    "s, and ": 8651,
    " me\n": 8652,
    "my sweet ": 8653,
    " thither": 8654,
    "Speak": 8655,
    ":\nOne ": 8656,
    "nex": 8657,
    "ous;\n": 8658,
    "art ": 8659,
    "No, ": 8660,
    "posing ": 8661,
    "I'ld ": 8662,
    ".' '": 8663,
    "oracle": 8664,
    "devotion": 8665,
    "$": 8666,
    "or f": 8667,
    "Menen": 8668,
    "s me ": 8669,
    "gaze ": 8670,
    "roy": 8671,
    " sain": 8672,
    "he the ": 8673,
    "worship": 8674,
    "them": 8675,
    "it down": 8676,
    "therein": 8677,
    "Angel": 8678,
    "arg": 8679,
    "amp": 8680,
    "country": 8681,
    "pick": 8682,
    "ble": 8683,
    " I will": 8684,
    "easure ": 8685,
    "once more ": 8686,
    "show": 8687,
    "bear the ": 8688,
    "remor": 8689,
    " wonder": 8690,
    "n'd ": 8691,
    "ict": 8692,
    ";\nB": 8693,
    "I could ": 8694,
    "kna": 8695,
    "past ": 8696,
    "now to ": 8697,
    "list": 8698,
    "TIO:\n": 8699,
    "atcliff": 8700,
    "rag": 8701,
    " day": 8702,
    "day is ": 8703,
    "I say": 8704,
    "etit": 8705,
    "gone ": 8706,
    "?\n\nHENRY PERCY": 8707,
    "dread": 8708,
    "ry\n": 8709,
    "e.\n\nCLARENCE:\n": 8710,
    ",\nL": 8711,
    " men": 8712,
    "Then, ": 8713,
    "fl": 8714,
    "estate ": 8715,
    ": he ": 8716,
    "virgin": 8717,
    "s?\n\n": 8718,
    "there ": 8719,
    "d\nAnd ": 8720,
    " off": 8721,
    "ged ": 8722,
    "he?\n\n": 8723,
    "rush": 8724,
    " sweet ": 8725,
    "appear": 8726,
    "my lord, ": 8727,
    "rid ": 8728,
    "River": 8729,
    "LEOMENES:\n": 8730,
    "e,\nHe ": 8731,
    ",\nCon": 8732,
    ", which": 8733,
    "to say": 8734,
    "ed:": 8735,
    "he is": 8736,
    " sun": 8737,
    "ich": 8738,
    ":\nWhen": 8739,
    " t": 8740,
    "sheep": 8741,
    ";\nI ": 8742,
    "upon our": 8743,
    "O": 8744,
    "hundred ": 8745,
    "coun": 8746,
    "Either": 8747,
    "! w": 8748,
    "my master": 8749,
    " horse ": 8750,
    "gel": 8751,
    "s.\nBut ": 8752,
    "ary ": 8753,
    "raise ": 8754,
    "royal person": 8755,
    "butcher": 8756,
    ",\nI'll ": 8757,
    "prith": 8758,
    "tiding": 8759,
    "haste ": 8760,
    "VOL": 8761,
    "ere's ": 8762,
    ",\nLike ": 8763,
    "jest": 8764,
    " mis": 8765,
    "perform": 8766,
    "um": 8767,
    "olden": 8768,
    "ect\n": 8769,
    " mayst ": 8770,
    "is it ": 8771,
    "elder": 8772,
    "ribunes": 8773,
    "vile": 8774,
    "Anti": 8775,
    "struck": 8776,
    " or": 8777,
    ".\nWho ": 8778,
    "state ": 8779,
    "Sicili": 8780,
    " str": 8781,
    "uten": 8782,
    "undertake ": 8783,
    ".\n\nVIRGILIA": 8784,
    ", my ": 8785,
    "the people": 8786,
    " met ": 8787,
    "per ": 8788,
    ".\n\nFirst Servingman": 8789,
    "because ": 8790,
    " pea": 8791,
    "prick": 8792,
    "by my ": 8793,
    ":\nSome ": 8794,
    "d\nThe ": 8795,
    " mad": 8796,
    "elcome, ": 8797,
    " god": 8798,
    "3": 8799,
    "come hither": 8800,
    "se ": 8801,
    "spleen": 8802,
    "urg": 8803,
    ":\nBrother": 8804,
    "s:\nThe ": 8805,
    "iness": 8806,
    ".\n\nCATESBY": 8807,
    "willing": 8808,
    "rebu": 8809,
    "cern": 8810,
    "ethinks ": 8811,
    "Bol": 8812,
    "che": 8813,
    "and the ": 8814,
    "of thy ": 8815,
    "house": 8816,
    "days ": 8817,
    "entle": 8818,
    "bel": 8819,
    "riv": 8820,
    "revenge": 8821,
    ".\nGood ": 8822,
    "I pray, ": 8823,
    "ean": 8824,
    "command": 8825,
    "is this": 8826,
    "stra": 8827,
    " into the ": 8828,
    "tru": 8829,
    "alm": 8830,
    " pur": 8831,
    " M": 8832,
    "atrician": 8833,
    "said": 8834,
    "piece ": 8835,
    "ita": 8836,
    "If you": 8837,
    "Serv": 8838,
    "ing\n": 8839,
    "have ": 8840,
    "OXF": 8841,
    "river": 8842,
    "remembran": 8843,
    "vent": 8844,
    "bids ": 8845,
    " company ": 8846,
    "ing w": 8847,
    "O:\n": 8848,
    "here?\n\n": 8849,
    "ider": 8850,
    " most ": 8851,
    "may": 8852,
    "dis": 8853,
    "inte": 8854,
    "ey": 8855,
    "eed\n": 8856,
    "vest": 8857,
    "manner": 8858,
    "goodly ": 8859,
    "thrust ": 8860,
    "ause ": 8861,
    ".\n\nPOMPEY": 8862,
    "ISHOP OF ": 8863,
    "no mor": 8864,
    "C": 8865,
    "offence ": 8866,
    " thee": 8867,
    " hast ": 8868,
    "?\n\nMessenger:\nThe ": 8869,
    "where\n": 8870,
    "heard ": 8871,
    "are\n": 8872,
    "come the ": 8873,
    "!\nFor": 8874,
    ":\nWh": 8875,
    " to this ": 8876,
    "friar": 8877,
    "lately ": 8878,
    "choose ": 8879,
    " counten": 8880,
    "vill": 8881,
    "sends ": 8882,
    "eng": 8883,
    "far": 8884,
    " suffer": 8885,
    " weep": 8886,
    "Pad": 8887,
    "straight ": 8888,
    " I be ": 8889,
    "cra": 8890,
    ",\nWhere": 8891,
    ":\nThou hast ": 8892,
    "d, and ": 8893,
    " all this ": 8894,
    "them and ": 8895,
    "through": 8896,
    ".\n\nM": 8897,
    "eyes,\n": 8898,
    "FROTH": 8899,
    " flesh": 8900,
    "Sir ": 8901,
    "big": 8902,
    "time, ": 8903,
    ";\nBut ": 8904,
    ".\nYour": 8905,
    "Call": 8906,
    "AEdi": 8907,
    "ce, and ": 8908,
    "his majest": 8909,
    "s to you": 8910,
    "late": 8911,
    "suff": 8912,
    " all ": 8913,
    "o, ": 8914,
    "to give ": 8915,
    "Gre": 8916,
    "seen ": 8917,
    " motion": 8918,
    "purpose": 8919,
    "; what ": 8920,
    ":\nWhat's ": 8921,
    "OF YORK": 8922,
    "antage ": 8923,
    "speaks ": 8924,
    "ighty ": 8925,
    ". I am": 8926,
    "s,\nTo ": 8927,
    "Tranio, ": 8928,
    ":\nB": 8929,
    " g": 8930,
    "do you": 8931,
    " witness ": 8932,
    "breast": 8933,
    "us, and ": 8934,
    ";\nS": 8935,
    " pres": 8936,
    "AGOT": 8937,
    "not this ": 8938,
    "eye ": 8939,
    "AST": 8940,
    "on's ": 8941,
    "himself": 8942,
    "marry, ": 8943,
    "liber": 8944,
    "And so ": 8945,
    "piec": 8946,
    "yet ": 8947,
    ".\n\nBALTHASAR": 8948,
    "else": 8949,
    "mine, ": 8950,
    "wit ": 8951,
    "fight ": 8952,
    " had": 8953,
    "oft": 8954,
    "OXFORD": 8955,
    "rebel": 8956,
    "owards ": 8957,
    "embass": 8958,
    "wast": 8959,
    "fine ": 8960,
    "ladies": 8961,
    "none, ": 8962,
    "remem": 8963,
    "affor": 8964,
    "Where": 8965,
    "id them": 8966,
    ":\nTh": 8967,
    "def": 8968,
    "you may ": 8969,
    "lease ": 8970,
    "courtes": 8971,
    "th, ": 8972,
    "sli": 8973,
    "ISTRESS O": 8974,
    "ilt ": 8975,
    ".\n\nMONTAGUE:\n": 8976,
    " thou wilt ": 8977,
    "to that ": 8978,
    "ETRUCH": 8979,
    "Till": 8980,
    "alse": 8981,
    "rip": 8982,
    "I fear": 8983,
    "ESCAL": 8984,
    "you as ": 8985,
    "Katharina": 8986,
    " hear": 8987,
    " that my ": 8988,
    "3 KING HENRY VI": 8989,
    "vali": 8990,
    "e; ": 8991,
    "?\n\nISABELLA": 8992,
    ", then, ": 8993,
    "seat ": 8994,
    "with thee ": 8995,
    ":\nThat's ": 8996,
    "done, ": 8997,
    "Richmond, ": 8998,
    "ck": 8999,
    "of ": 9000,
    " their": 9001,
    "never ": 9002,
    " par": 9003,
    "'d in ": 9004,
    "ann": 9005,
    "hill": 9006,
    "hatred ": 9007,
    "send ": 9008,
    "head ": 9009,
    "reven": 9010,
    "\nD": 9011,
    "wanton": 9012,
    "e\nFor": 9013,
    "assist": 9014,
    ":\nPray you, ": 9015,
    "tongues ": 9016,
    " not to ": 9017,
    "I sa": 9018,
    "upon": 9019,
    "Shall be ": 9020,
    "is ": 9021,
    ":\nA": 9022,
    "edi": 9023,
    "end": 9024,
    ",\nThey ": 9025,
    "complain": 9026,
    "intend": 9027,
    "paper": 9028,
    ",\nSince ": 9029,
    "in a ": 9030,
    " doth": 9031,
    "double ": 9032,
    "trunk": 9033,
    "if this ": 9034,
    "ere is no ": 9035,
    "still": 9036,
    " how": 9037,
    "Ga": 9038,
    "cu": 9039,
    "morous ": 9040,
    " she, ": 9041,
    "south": 9042,
    "ned ": 9043,
    "ough": 9044,
    "Bl": 9045,
    "do, ": 9046,
    " a b": 9047,
    "-like ": 9048,
    " me,\n": 9049,
    "power ": 9050,
    "Servant": 9051,
    "giv": 9052,
    "mouth": 9053,
    "-hearted ": 9054,
    "of us ": 9055,
    "angerous ": 9056,
    " pardon": 9057,
    "sight": 9058,
    "that's ": 9059,
    "on me": 9060,
    ":\nR": 9061,
    "bon": 9062,
    ";\nP": 9063,
    "QUEEN ELIZ": 9064,
    "host of ": 9065,
    "ac": 9066,
    " hence ": 9067,
    "remed": 9068,
    ":'": 9069,
    "Rem": 9070,
    ".\nThis ": 9071,
    " doub": 9072,
    "as a ": 9073,
    "Camillo ": 9074,
    "Capu": 9075,
    "'d his ": 9076,
    "eas": 9077,
    " att": 9078,
    "ala": 9079,
    "desire ": 9080,
    "on their": 9081,
    ". A": 9082,
    " Isabel": 9083,
    "hands ": 9084,
    "flu": 9085,
    "om": 9086,
    "Both": 9087,
    " struck": 9088,
    " stri": 9089,
    "\nISABELLA": 9090,
    ".\n\nS": 9091,
    "imp": 9092,
    "?\n\nLUCIO:\n": 9093,
    "e.\n\nGLOUCESTER": 9094,
    "learn": 9095,
    "say '": 9096,
    "company": 9097,
    "BUCKINGHAM": 9098,
    "'t, ": 9099,
    "rev": 9100,
    "ed,\nAnd ": 9101,
    "kneel": 9102,
    "Joh": 9103,
    " general": 9104,
    "times ": 9105,
    "FRIAR LAURENCE:\n": 9106,
    " ab": 9107,
    "are you well": 9108,
    "sl": 9109,
    "man, ": 9110,
    "in that ": 9111,
    "in this": 9112,
    "might ": 9113,
    " command": 9114,
    " thank": 9115,
    "s,\nOf": 9116,
    "I cannot ": 9117,
    "Coriolanus, ": 9118,
    ",\nThere ": 9119,
    "ies,\nAnd ": 9120,
    "fat": 9121,
    "nup": 9122,
    "brok": 9123,
    "! ": 9124,
    "hungry ": 9125,
    "quickly ": 9126,
    "ANGELO:\n": 9127,
    "ield": 9128,
    "sweet ": 9129,
    "request": 9130,
    "round": 9131,
    "; this ": 9132,
    "lic": 9133,
    "bove ": 9134,
    "s:\nWe ": 9135,
    "; and, ": 9136,
    "make me ": 9137,
    "\nThat ": 9138,
    "eag": 9139,
    "restor": 9140,
    "ench": 9141,
    "him, and ": 9142,
    "enemies,\n": 9143,
    "at thy ": 9144,
    " sister": 9145,
    ":\nYou": 9146,
    ".\nM": 9147,
    "You are ": 9148,
    "bar": 9149,
    "bottom": 9150,
    "ion, ": 9151,
    "party ": 9152,
    "ouch": 9153,
    "jur": 9154,
    "\nand ": 9155,
    "ing tear": 9156,
    "would be ": 9157,
    "strong and ": 9158,
    "ation": 9159,
    "tu": 9160,
    ", so ": 9161,
    "er and ": 9162,
    " pri": 9163,
    "govern'd ": 9164,
    "for that ": 9165,
    "All": 9166,
    "path": 9167,
    "?\n\nWARWICK": 9168,
    ", and his ": 9169,
    " may ": 9170,
    "to thy ": 9171,
    "rit ": 9172,
    ".\nHere ": 9173,
    "County ": 9174,
    " such": 9175,
    "death to ": 9176,
    "\nOf the ": 9177,
    "lix": 9178,
    "ies and ": 9179,
    "thr": 9180,
    "hear me ": 9181,
    "is not ": 9182,
    "thine": 9183,
    "nes": 9184,
    " us": 9185,
    " bleed": 9186,
    "qu": 9187,
    ":\nSt": 9188,
    ":\nWhat ": 9189,
    "deputy ": 9190,
    ".\nO, ": 9191,
    "es\nAnd ": 9192,
    "Juliet, ": 9193,
    "likew": 9194,
    "polic": 9195,
    "e'll": 9196,
    "God's sake, ": 9197,
    "profan": 9198,
    " of king": 9199,
    "seless ": 9200,
    "; if ": 9201,
    "'gainst ": 9202,
    "bru": 9203,
    "ixt ": 9204,
    "tell you": 9205,
    "Earl of W": 9206,
    "recover": 9207,
    "got": 9208,
    "doth ": 9209,
    "ang": 9210,
    "envy ": 9211,
    "ces ": 9212,
    "LY": 9213,
    "\nSo ": 9214,
    "Once ": 9215,
    "pp'd ": 9216,
    "CARLISLE:\n": 9217,
    "ate": 9218,
    "Be ": 9219,
    "--\n": 9220,
    "ery ": 9221,
    "parent": 9222,
    "Whom": 9223,
    " I'll ": 9224,
    "thin": 9225,
    "she ": 9226,
    " b": 9227,
    "eafter": 9228,
    "fri": 9229,
    " it, ": 9230,
    "month": 9231,
    "thus": 9232,
    "e.\n\nDUKE VINCENTIO:\n": 9233,
    "heav": 9234,
    "envious ": 9235,
    "occa": 9236,
    "judgment ": 9237,
    "Rome,\n": 9238,
    ", or": 9239,
    "il'd ": 9240,
    "e, my lord": 9241,
    ",\nand ": 9242,
    "peach": 9243,
    "\nMay ": 9244,
    "\nI' the ": 9245,
    "et's ": 9246,
    "Ghost of ": 9247,
    "tongue ": 9248,
    " beauty ": 9249,
    "morrow": 9250,
    "drop": 9251,
    "your p": 9252,
    " dep": 9253,
    "urs": 9254,
    "brid": 9255,
    "usion": 9256,
    "ort ": 9257,
    "fix": 9258,
    "eap": 9259,
    "ian": 9260,
    ":\nThis is ": 9261,
    "pre": 9262,
    "uspic": 9263,
    ".\n\nCLEOMENES:\n": 9264,
    "Antium": 9265,
    "last": 9266,
    "s.\n\nWARWICK": 9267,
    "LIF": 9268,
    "liege,\n": 9269,
    "proper": 9270,
    "God for": 9271,
    "plebe": 9272,
    "in your ": 9273,
    "hateful": 9274,
    "LEONTES:\n": 9275,
    "on the ": 9276,
    "Bona": 9277,
    "entleman": 9278,
    "gro": 9279,
    "yes, ": 9280,
    "Duke of Norfolk": 9281,
    "arry ": 9282,
    "betwe": 9283,
    "e;\nBut ": 9284,
    ": if": 9285,
    "choice": 9286,
    "is my ": 9287,
    "God, ": 9288,
    " who ": 9289,
    ",\nThou": 9290,
    ".\nT": 9291,
    ":\nThink": 9292,
    "thes": 9293,
    "ven": 9294,
    "ENVOLIO:\n": 9295,
    "Henry ": 9296,
    "y,\nAnd ": 9297,
    "occasion": 9298,
    "scarce ": 9299,
    " fri": 9300,
    "Therefore ": 9301,
    "sigh": 9302,
    "embrace ": 9303,
    "Mar": 9304,
    "'d by the ": 9305,
    "! what ": 9306,
    "not so": 9307,
    "s, w": 9308,
    "d\nThat ": 9309,
    "the heaven": 9310,
    "cock": 9311,
    "would ": 9312,
    "tyrann": 9313,
    "comfort ": 9314,
    "said '": 9315,
    "Now": 9316,
    "by some ": 9317,
    "kill'd ": 9318,
    "!\n\nBRUTUS:\n": 9319,
    ":\nSuch": 9320,
    "short": 9321,
    " so fair": 9322,
    "iness ": 9323,
    "dece": 9324,
    "shed ": 9325,
    "uthor": 9326,
    "thro": 9327,
    ".\n\nFirst Lord": 9328,
    "enemy ": 9329,
    "es'": 9330,
    "withal": 9331,
    "omb": 9332,
    "you be ": 9333,
    "t\nThat ": 9334,
    "had been": 9335,
    " myself": 9336,
    "of his ": 9337,
    ".\n\nQUEEN MARGARET:\n": 9338,
    "oon": 9339,
    "er of my ": 9340,
    "ursu": 9341,
    " watch": 9342,
    "bare ": 9343,
    ",\nWhile ": 9344,
    "OLIXENES:\n": 9345,
    "Hast": 9346,
    ":\nBut ": 9347,
    "court ": 9348,
    "e ": 9349,
    "ohem": 9350,
    "know not ": 9351,
    ":\nPro": 9352,
    "prepare ": 9353,
    " pl": 9354,
    "saw": 9355,
    "whom": 9356,
    "ward ": 9357,
    "and to ": 9358,
    "ed in": 9359,
    "ne'": 9360,
    "?\n\nBUCKINGHAM": 9361,
    "'twere ": 9362,
    "and, ": 9363,
    "Duke of Gloucester": 9364,
    "rand": 9365,
    "vow": 9366,
    "light to ": 9367,
    "o'": 9368,
    "'twas ": 9369,
    " against the ": 9370,
    "?\n\nVOLUMNIA": 9371,
    "unhapp": 9372,
    "abs": 9373,
    "Somer": 9374,
    "it him": 9375,
    "God and ": 9376,
    "RUT": 9377,
    "loss ": 9378,
    ".\nFarewell": 9379,
    "ua": 9380,
    "cry": 9381,
    "chamber": 9382,
    "Lanca": 9383,
    "stamp": 9384,
    " how ": 9385,
    "him and ": 9386,
    "bur": 9387,
    "glass": 9388,
    "ses ": 9389,
    "Gentle": 9390,
    ",--\n\nSICINIUS:\n": 9391,
    "rook": 9392,
    "ence, ": 9393,
    "in saf": 9394,
    ", and ": 9395,
    "hither ": 9396,
    "true": 9397,
    "your a": 9398,
    "Poor": 9399,
    ".\nWhat ": 9400,
    ":\nThou art ": 9401,
    "old, ": 9402,
    " foot": 9403,
    "Pet": 9404,
    "devour": 9405,
    "heart ": 9406,
    "?\nHave ": 9407,
    " find ": 9408,
    "the f": 9409,
    "sembl": 9410,
    "ass": 9411,
    "ound": 9412,
    "you must ": 9413,
    "e--": 9414,
    "antast": 9415,
    "QUEEN ELIZAB": 9416,
    ":\nAn ": 9417,
    "wrink": 9418,
    "s, which": 9419,
    "consider": 9420,
    "s, as ": 9421,
    "until": 9422,
    "shap": 9423,
    ". Therefore, ": 9424,
    "st ": 9425,
    "King Edward's ": 9426,
    "ensed ": 9427,
    " thou ": 9428,
    ".": 9429,
    "top": 9430,
    ":\nStay, ": 9431,
    ",\nIf": 9432,
    "Yet ": 9433,
    "once": 9434,
    "come": 9435,
    "he": 9436,
    ":\nThere ": 9437,
    "lawful": 9438,
    " goodly ": 9439,
    "JOHN": 9440,
    "lov": 9441,
    "stran": 9442,
    " under": 9443,
    ",\nWhom": 9444,
    " should ": 9445,
    "praise": 9446,
    "mit ": 9447,
    "with thee": 9448,
    "&": 9449,
    "vex": 9450,
    "ilt": 9451,
    "shor": 9452,
    "your sh": 9453,
    "deadly ": 9454,
    "cor": 9455,
    ", madam": 9456,
    "ranch": 9457,
    "?\n\nPost": 9458,
    "utenant": 9459,
    "each ": 9460,
    "ister ": 9461,
    "tid": 9462,
    "your house": 9463,
    "aith": 9464,
    "duty ": 9465,
    "cross": 9466,
    " wear": 9467,
    ":\nBesides, ": 9468,
    "versar": 9469,
    "of my ": 9470,
    "bre": 9471,
    "; and the ": 9472,
    " hea": 9473,
    "oath": 9474,
    "curse ": 9475,
    " thr": 9476,
    "le's ": 9477,
    "talk of": 9478,
    ":\nTut, ": 9479,
    "both ": 9480,
    "gn": 9481,
    "fiery ": 9482,
    "t": 9483,
    ":\nThey ": 9484,
    "for me": 9485,
    "if you ": 9486,
    "ot": 9487,
    "wed": 9488,
    "piteous ": 9489,
    ".\nMy ": 9490,
    "ould": 9491,
    "p to ": 9492,
    "deliver'd": 9493,
    "ir, ": 9494,
    "y\n": 9495,
    ", it ": 9496,
    "ss": 9497,
    "fire ": 9498,
    " two": 9499,
    ",\nOur": 9500,
    "e?\n\nP": 9501,
    "you c": 9502,
    "It is ": 9503,
    "dust ": 9504,
    "illain": 9505,
    "banishment": 9506,
    "arment": 9507,
    "more to ": 9508,
    "oly ": 9509,
    "forth": 9510,
    " is ": 9511,
    "death": 9512,
    "los": 9513,
    " death, ": 9514,
    " that the ": 9515,
    ".\nI am": 9516,
    "ucking": 9517,
    "Marg": 9518,
    "there, ": 9519,
    "doubt, ": 9520,
    "es:": 9521,
    "fing": 9522,
    "es,\n": 9523,
    "ING": 9524,
    "!\nNow, ": 9525,
    "I hop": 9526,
    "far off": 9527,
    ".\n\nNurse": 9528,
    "me to thy ": 9529,
    "dev": 9530,
    "rave ": 9531,
    "a world ": 9532,
    " mine own": 9533,
    "Caesar": 9534,
    "RICHMOND": 9535,
    "two ": 9536,
    "advent": 9537,
    "ect, ": 9538,
    "issue ": 9539,
    "FRO": 9540,
    " honest ": 9541,
    ",\nWith": 9542,
    "spect": 9543,
    "with a ": 9544,
    "threat": 9545,
    "tor": 9546,
    "?\n\nCATESBY": 9547,
    "iece": 9548,
    "Sic": 9549,
    "duk": 9550,
    "tribunes": 9551,
    "?\n\nFRIAR LAURENCE:\n": 9552,
    "y;\n": 9553,
    "your\n": 9554,
    ": f": 9555,
    "ga": 9556,
    "See ": 9557,
    "brother ": 9558,
    " pluck": 9559,
    "sovereign, ": 9560,
    "she's ": 9561,
    "etch": 9562,
    "cat": 9563,
    "native ": 9564,
    "thus ": 9565,
    "unknown": 9566,
    "inclin": 9567,
    "close": 9568,
    ".\n\nLord Mayor": 9569,
    "s;\n": 9570,
    " wa": 9571,
    "urse": 9572,
    "ray, ": 9573,
    "ius, ": 9574,
    " me and ": 9575,
    "Aufidi": 9576,
    ", nor": 9577,
    "but one ": 9578,
    "instruct ": 9579,
    "less, ": 9580,
    "having": 9581,
    "\nBe ": 9582,
    "umer": 9583,
    "me;\n": 9584,
    "Buckingham": 9585,
    "perfect ": 9586,
    "ow, ": 9587,
    ",\nWere ": 9588,
    " thou art": 9589,
    "unish": 9590,
    " me to ": 9591,
    "fled ": 9592,
    "to himself": 9593,
    "complexion": 9594,
    ": but, ": 9595,
    " of his ": 9596,
    ".\n\nLord Marshal": 9597,
    "met ": 9598,
    "ile": 9599,
    "Then": 9600,
    "with m": 9601,
    "fidi": 9602,
    "ati": 9603,
    ".\n\nCAPULET": 9604,
    "USHY": 9605,
    "cted ": 9606,
    "glory ": 9607,
    "prob": 9608,
    " comm": 9609,
    "ther ": 9610,
    "ev": 9611,
    " not": 9612,
    "Have ": 9613,
    " with us": 9614,
    ": he is ": 9615,
    "sub": 9616,
    "ail": 9617,
    "people, ": 9618,
    "fortune's ": 9619,
    "furnish": 9620,
    "fairly ": 9621,
    ":\nSo ": 9622,
    "ily ": 9623,
    "sure, ": 9624,
    "gra": 9625,
    "Me": 9626,
    "antly ": 9627,
    "\nWill": 9628,
    "in, ": 9629,
    " pr": 9630,
    "ousin, ": 9631,
    "therefore, ": 9632,
    ": s": 9633,
    "dist": 9634,
    "king and ": 9635,
    "fi": 9636,
    "shown": 9637,
    "well ": 9638,
    "jured ": 9639,
    ".\n\nD": 9640,
    "s;\nAnd ": 9641,
    "e,\nS": 9642,
    " him that ": 9643,
    "fit ": 9644,
    "shall ": 9645,
    "Queen ": 9646,
    "a mer": 9647,
    "by the ": 9648,
    ",\nYou": 9649,
    "beat ": 9650,
    "give you ": 9651,
    "alse ": 9652,
    "safe": 9653,
    "nature": 9654,
    "like a b": 9655,
    "Not ": 9656,
    "hope ": 9657,
    "way to ": 9658,
    "beloved ": 9659,
    "vost": 9660,
    "wherein": 9661,
    "Duke of Norfolk, ": 9662,
    ", who ": 9663,
    "sing": 9664,
    "arewell ": 9665,
    "Angelo ": 9666,
    " made ": 9667,
    " being": 9668,
    "bric": 9669,
    "when my ": 9670,
    ":\nWhere ": 9671,
    "Gentlemen, ": 9672,
    "deny ": 9673,
    " so, ": 9674,
    "They ": 9675,
    "masters, ": 9676,
    "reet": 9677,
    "They": 9678,
    " war": 9679,
    "an oath": 9680,
    " giv": 9681,
    "ed him": 9682,
    "heart's ": 9683,
    "you shall ": 9684,
    " death": 9685,
    " nor": 9686,
    "s,\nThat ": 9687,
    ".\n\nVOLUMNIA:\n": 9688,
    ".\nNow": 9689,
    "full": 9690,
    "'st thou ": 9691,
    "M": 9692,
    "; but ": 9693,
    "of her ": 9694,
    "ved, ": 9695,
    ", I'll": 9696,
    "selves ": 9697,
    " blessed ": 9698,
    "liv": 9699,
    "HERMIONE:\n": 9700,
    "unction": 9701,
    "havior": 9702,
    "AUTOL": 9703,
    "ple": 9704,
    "ze ": 9705,
    "to be so ": 9706,
    "comes ": 9707,
    "hath a": 9708,
    "it now": 9709,
    "ler": 9710,
    "ing, ": 9711,
    "say the ": 9712,
    "ax": 9713,
    "ial": 9714,
    "Ca": 9715,
    "cept": 9716,
    "women": 9717,
    " your high": 9718,
    "ill-": 9719,
    "up": 9720,
    "not thy ": 9721,
    "he shall ": 9722,
    "o'er-": 9723,
    "bling ": 9724,
    "io ": 9725,
    ".\nL": 9726,
    "even so": 9727,
    "rude ": 9728,
    "to hear": 9729,
    "wo": 9730,
    "revenge ": 9731,
    "she is ": 9732,
    "vass": 9733,
    "prid": 9734,
    "fold": 9735,
    "more": 9736,
    "treacher": 9737,
    "s\nThat ": 9738,
    "mind ": 9739,
    "to't": 9740,
    "Mantua": 9741,
    ": wh": 9742,
    "another": 9743,
    "RI": 9744,
    "yield ": 9745,
    "receiv": 9746,
    "the w": 9747,
    "ess, ": 9748,
    "adventure ": 9749,
    "Here's ": 9750,
    " didst ": 9751,
    "expect": 9752,
    "In ": 9753,
    "IA": 9754,
    "broken ": 9755,
    "sand ": 9756,
    "onder ": 9757,
    "s of": 9758,
    "stay": 9759,
    ":\nBe": 9760,
    "prize ": 9761,
    "vile ": 9762,
    "!\n\nJULIET:\n": 9763,
    "on to ": 9764,
    "stand ": 9765,
    ":\nDo ": 9766,
    "late ": 9767,
    "e,\nThat ": 9768,
    "posed ": 9769,
    "!": 9770,
    "Marcius is ": 9771,
    "sent": 9772,
    "\nF": 9773,
    " blood,\n": 9774,
    "age, ": 9775,
    "hath made ": 9776,
    "sc": 9777,
    "tongue,\n": 9778,
    "'d with": 9779,
    ":\nPer": 9780,
    "safet": 9781,
    " you, ": 9782,
    ", but ": 9783,
    "bu": 9784,
    ".\n\nHORTENSIO:\n": 9785,
    "to be": 9786,
    "maid": 9787,
    " some ": 9788,
    "soul": 9789,
    "part, ": 9790,
    "one and ": 9791,
    "ous and ": 9792,
    "me, and ": 9793,
    " strike ": 9794,
    "son ": 9795,
    "revenges ": 9796,
    "isper": 9797,
    "ted": 9798,
    "bow": 9799,
    "\nSome ": 9800,
    "I' the ": 9801,
    "quest ": 9802,
    ";\nNor": 9803,
    ".\n\nLORD ROS": 9804,
    "than": 9805,
    " brook": 9806,
    "ir": 9807,
    "oul": 9808,
    "if he ": 9809,
    "led": 9810,
    "rage ": 9811,
    "\n\n": 9812,
    "by this ": 9813,
    "boy ": 9814,
    "every one ": 9815,
    "ERM": 9816,
    "ture ": 9817,
    "in them": 9818,
    " I can": 9819,
    "gent": 9820,
    "presence ": 9821,
    "'s": 9822,
    "tent": 9823,
    " not ": 9824,
    "NORTHUMBERLAND": 9825,
    "Margare": 9826,
    " where ": 9827,
    "behol": 9828,
    ".\nSo, ": 9829,
    "e,\nThe ": 9830,
    "d's ": 9831,
    "e\nThe ": 9832,
    " ston": 9833,
    "eor": 9834,
    "HAM": 9835,
    ", if": 9836,
    "with a t": 9837,
    "with ": 9838,
    " health": 9839,
    "seven ": 9840,
    "Lan": 9841,
    "ES:\n": 9842,
    "will I": 9843,
    " cam": 9844,
    "business ": 9845,
    ":\nThat ": 9846,
    "equ": 9847,
    "enough": 9848,
    "?\n\nProvost": 9849,
    "ty": 9850,
    "fil": 9851,
    "AUT": 9852,
    "am I ": 9853,
    "look": 9854,
    "you that ": 9855,
    "ick": 9856,
    "Hastings, ": 9857,
    "at his ": 9858,
    "true-": 9859,
    "kindness": 9860,
    "to his ": 9861,
    "those that ": 9862,
    ". If": 9863,
    "I will": 9864,
    "exerci": 9865,
    "\nHave ": 9866,
    "cloth": 9867,
    "patch": 9868,
    "arch": 9869,
    "Till ": 9870,
    "destruction": 9871,
    "count": 9872,
    "fair, ": 9873,
    "\nIs ": 9874,
    "ERBY": 9875,
    " then ": 9876,
    "several": 9877,
    "ens": 9878,
    "e.\n\nLUCIO:\n": 9879,
    "Clifford": 9880,
    " person": 9881,
    "greet ": 9882,
    " hom": 9883,
    " of w": 9884,
    "used ": 9885,
    "YOR": 9886,
    " friends": 9887,
    "usur": 9888,
    " twenty ": 9889,
    "light": 9890,
    "against the ": 9891,
    "cond ": 9892,
    ":\nSir, ": 9893,
    "your good ": 9894,
    "icer": 9895,
    "a strange ": 9896,
    "e\nAs ": 9897,
    "\nWith ": 9898,
    "rann": 9899,
    ".\n\nFirst Citizen": 9900,
    " see": 9901,
    " some": 9902,
    " gro": 9903,
    "con": 9904,
    "race of ": 9905,
    " def": 9906,
    "e?\n\n": 9907,
    "reign": 9908,
    "lark": 9909,
    " please ": 9910,
    "steel": 9911,
    "ABHOR": 9912,
    "wench": 9913,
    "itle ": 9914,
    "This ": 9915,
    ",\nHis ": 9916,
    " said": 9917,
    "y,\nThat ": 9918,
    "received ": 9919,
    "'s, ": 9920,
    "married ": 9921,
    "alli": 9922,
    "I have heard ": 9923,
    " drop": 9924,
    "Lancaster": 9925,
    "\nHath": 9926,
    ",\nThy ": 9927,
    ":\n'Twas ": 9928,
    "mercy": 9929,
    "Servingman": 9930,
    "new-": 9931,
    "harm": 9932,
    " good": 9933,
    "I m": 9934,
    "time to ": 9935,
    "children": 9936,
    "husband, ": 9937,
    ".\n\nVIRGILIA:\n": 9938,
    "shall have ": 9939,
    "house of ": 9940,
    "IN": 9941,
    ". L": 9942,
    "HENRY BOLINGBR": 9943,
    "crim": 9944,
    "Per": 9945,
    ";\nT": 9946,
    "me to the ": 9947,
    "to him": 9948,
    "You": 9949,
    "virtue ": 9950,
    "if ": 9951,
    "fic": 9952,
    " tra": 9953,
    "upon this ": 9954,
    "an, ": 9955,
    "Pompe": 9956,
    ". Do ": 9957,
    " you are ": 9958,
    "I had rather": 9959,
    "iece ": 9960,
    " time to ": 9961,
    " ty": 9962,
    "Would ": 9963,
    "ream": 9964,
    "s\nWhich": 9965,
    ";\nTh": 9966,
    "guest": 9967,
    " well": 9968,
    "Thomas Mowbra": 9969,
    "then, ": 9970,
    "LAN": 9971,
    "tale ": 9972,
    "refu": 9973,
    "uncle, ": 9974,
    "cha": 9975,
    "ing but ": 9976,
    "ASTINGS:\n": 9977,
    "sham": 9978,
    "AT": 9979,
    "mis": 9980,
    " bri": 9981,
    "?\n\nKING RICHARD III": 9982,
    "ing g": 9983,
    "ght ": 9984,
    ".\n\nFirst Soldier": 9985,
    "nett": 9986,
    "bid ": 9987,
    "take it ": 9988,
    "tomb": 9989,
    "dearly ": 9990,
    "queen": 9991,
    "ise": 9992,
    ".\n\n": 9993,
    "ep": 9994,
    "on her": 9995,
    "ent, ": 9996,
    "queen's ": 9997,
    "you to ": 9998,
    "excuse ": 9999,
    " again": 10000,
    "<PAD>": 1,
    "<UNK>": 2,
    "<BOS>": 3,
    "<EOS>": 4
}